{
  "</s>": 0,
  "<unk>": 1,
  ".": 2,
  ",": 3,
  "\u2581\"": 4,
  "\u2581\u1362": 5,
  "\u2581the": 6,
  ":": 7,
  "\u2581to": 8,
  "\u2581of": 9,
  "\u2581\u1361": 10,
  "\u2581and": 11,
  "\u1295": 12,
  "\u2581\u12a3\u1265": 13,
  "\u2581-": 14,
  "\u2581in": 15,
  "\u2581a": 16,
  "\u2581\u12a5\u12e9": 17,
  "\u2581that": 18,
  "s": 19,
  "?": 20,
  "\u2581is": 21,
  "\u2581\u1367": 22,
  "'": 23,
  "\u2581\u12a5\u1272": 24,
  "\u2581": 25,
  "\u2581for": 26,
  "\u2581Jehovah": 27,
  "\u2581\u12a8\u121d": 28,
  "\u2581God": 29,
  "\u2581his": 30,
  "\u2581we": 31,
  "\u2581\u12a3\u121d\u120b\u12bd": 32,
  "\u2581was": 33,
  "\u2581with": 34,
  "\u2581\u12e8\u1206\u12cb": 35,
  "\u2581\u12a5\u12da": 36,
  "\u2581\u1293\u12ed": 37,
  "\u2581be": 38,
  "\u2581you": 39,
  "\u2581not": 40,
  "\u2581\u1290\u1272": 41,
  "\u2581I": 42,
  "\u2581on": 43,
  "\u2581as": 44,
  "\u2581\u121d\u1235": 45,
  "\u2581he": 46,
  "\u2581\u1295": 47,
  "\u2581'": 48,
  "\u2581have": 49,
  "\u2581will": 50,
  "\u2581are": 51,
  "\u2581The": 52,
  "\u2581it": 53,
  "\u2581\u12a5\u1295\u1270": 54,
  "\u2581\u12f5\u121b": 55,
  "\u2581\u1265": 56,
  "\u2581our": 57,
  "\u2581from": 58,
  "\u2581by": 59,
  "\u2581\u1245\u12f1\u1235": 60,
  "\u2581Jesus": 61,
  "\u2581\u1218\u133d\u1213\u134d": 62,
  "\u2581\u12ab\u1265": 63,
  "\u2581\u12a5\u12cd\u1295": 64,
  "\u2581Bible": 65,
  "\u2581\u12a2\u12e9": 66,
  "\u2581(": 67,
  "\u2581can": 68,
  "ing": 69,
  "\u2581their": 70,
  "\u2581\u12b8\u121d": 71,
  "\u2581who": 72,
  "\u2581\u12a5\u12ee\u121d": 73,
  "\u2581\u1265\u12db\u12d5\u1263": 74,
  "\u2581us": 75,
  "\u2581\u12a5\u1295\u1273\u12ed": 76,
  "\u1293": 77,
  "\u2581\u1230\u1263\u1275": 78,
  "\u2581they": 79,
  "\u25811": 80,
  ")": 81,
  "\u2581\u12e8\u1231\u1235": 82,
  "\u2581[": 83,
  "\u2581or": 84,
  "\u2581\u1213\u12f0": 85,
  "\u2581\u1363": 86,
  "\u2581this": 87,
  "\u2581what": 88,
  "\u2581\u1293\u1265": 89,
  "\u2581What": 90,
  "\u2581do": 91,
  "!": 92,
  "\u2581were": 93,
  "\u2581had": 94,
  "\u2581\u12d8\u120e": 95,
  "\u2581all": 96,
  "\u2581your": 97,
  "\u2581\u12a2\u1293": 98,
  "\u2581at": 99,
  "\u2581\u12c8\u12ed": 100,
  "\u2581one": 101,
  "\u2581him": 102,
  "]": 103,
  "\u2581\u1230\u1265": 104,
  "\u2581them": 105,
  "\u2581people": 106,
  "\u2581\u130d\u1295": 107,
  "\u2581\u1235\u1208": 108,
  "\u2581\u12a5\u1276\u121d": 109,
  "\u2581an": 110,
  "\u2581In": 111,
  "\u2581\u12b8\u12a3": 112,
  "\u2581about": 113,
  "\u2581\u130d\u12dc": 114,
  "\u2581\u1265\u12b8\u1218\u12ed": 115,
  "\u2581\u1290\u12ed\u1229": 116,
  "\u2581my": 117,
  "\u121d": 118,
  "\u2581would": 119,
  "\u2581has": 120,
  "\u2581when": 121,
  "\u2581How": 122,
  "\u2581\u12a3\u1265\u1272": 123,
  "\u1209": 124,
  "\u2581did": 125,
  "\u1275": 126,
  "\u2581\u12a8\u12a3": 127,
  ";": 128,
  "\u2581life": 129,
  "\u2581time": 130,
  "\u2581may": 131,
  "\u2581but": 132,
  "\u2581\u12dd\u1290\u1260\u1228": 133,
  "\u2581\u12dd\u12c0\u1290": 134,
  "\u2581those": 135,
  "\u25812": 136,
  "\u2581so": 137,
  "\u2581me": 138,
  "\u2581He": 139,
  "\u2581\u12a5\u1273": 140,
  "\u2581\u12a5\u12cb\u1295": 141,
  "\u2581\u12ad": 142,
  "\u2581\u12dd": 143,
  "\u2581\u12a5\u12b3": 144,
  "\u2581\u12a3": 145,
  "\u2581\u1290\u1260\u1228": 146,
  "\u2581her": 147,
  "\u12ab": 148,
  "\u2581\u12da": 149,
  "\u1272": 150,
  "\u2581\u12a5\u12eb": 151,
  "\u2581\u12a2\u1209": 152,
  "\u2581some": 153,
  "\u2581\u1264\u1275": 154,
  "\u2581more": 155,
  "\u2581also": 156,
  "\u2581\u12d8": 157,
  "\u1235": 158,
  "\u2581\u1290\u1276\u121d": 159,
  "\u2581\u1290\u12da": 160,
  "\u2581help": 161,
  "\u2581how": 162,
  "\u2581\u130d\u1293": 163,
  "\u25815": 164,
  "\u2581\u12ed\u12bd\u12a5\u120d": 165,
  "\u2581\u1213\u1242": 166,
  "\u2581\u12a8\u121d\u12da": 167,
  "\u2581out": 168,
  "\u2581\u12ed\u12b9\u1295": 169,
  "\u2581/": 170,
  "\u2581good": 171,
  "\u2581\u12aa": 172,
  "\u258115": 173,
  "\u2581been": 174,
  "\u2581\u12ed": 175,
  "\u2581A": 176,
  "\u2581\u12a5\u121e": 177,
  "\u2581\u12d8\u1208\u12ce": 178,
  "\u2581such": 179,
  "\u2581We": 180,
  "\u2581\u1308\u133d": 181,
  "\u2581love": 182,
  "\u2581\u1290\u1308\u122b\u1275": 183,
  "\u2581up": 184,
  "\u2581\u12bb\u1265": 185,
  "\u2581many": 186,
  "\u2581It": 187,
  "\u2581\u12d3\u1208\u121d": 188,
  "\u2581Paul": 189,
  "\u2581Witnesses": 190,
  "\u2581\u12a3\u120e": 191,
  "\u2581way": 192,
  "\u2581\u1325\u122b\u12ed": 193,
  "\u2581\u1235\u1208\u121d\u1295\u1273\u12ed": 194,
  "\u2581work": 195,
  "\u2581things": 196,
  "\u25813": 197,
  "\"": 198,
  "\u2581no": 199,
  "\u1292": 200,
  "\u2581\u121d\u12c3\u1291": 201,
  "\u2581does": 202,
  "\u2581\u12a5\u121d\u1260\u122d": 203,
  "\u2581\u12a8\u120e": 204,
  "\u2581should": 205,
  "\u2581\u1290\u1308\u122d": 206,
  "\u2581\u1218\u1308\u12f2": 207,
  "ed": 208,
  "\u2581\u1265\u12d9\u1215": 209,
  "\u2581if": 210,
  "\u12f6": 211,
  "\u2581said": 212,
  "\u2581there": 213,
  "a": 214,
  "\u2581\u1235\u1208\u12da": 215,
  "\u2581other": 216,
  "\u2581make": 217,
  "\u2581\u12a5\u12e8": 218,
  "\u2581could": 219,
  "...": 220,
  "\u2581Christian": 221,
  "\u2581\u1218\u1295\u130d\u1235\u1272": 222,
  "\u2581man": 223,
  "\u2581When": 224,
  "\u2581\u12d3\u1218\u1275": 225,
  "\u25814": 226,
  "\u2581world": 227,
  "\u2581\u121d\u12a5\u1295\u1272": 228,
  "\u12cd\u1295": 229,
  "\u2581even": 230,
  "\u2581day": 231,
  "\u12ce": 232,
  "\u2581than": 233,
  "\u2581Why": 234,
  "\u2581\u1218\u1230\u12bb\u12bd\u122d": 235,
  "\u2581\u12dd\u1290\u1260\u1229": 236,
  "\u2581\u1295\u12e8\u1206\u12cb": 237,
  "\u258111": 238,
  "\u2581\u12ba": 239,
  "\u2581earth": 240,
  "\u2581\u1260\u1208": 241,
  "\u2581years": 242,
  "\u2581into": 243,
  "\u2581Christians": 244,
  "\u2581others": 245,
  "\u2581first": 246,
  "ly": 247,
  "\u2581Christ": 248,
  "\u2581Kingdom": 249,
  "\u2581page": 250,
  "\u2581\u1333\u12cd\u120e\u1235": 251,
  "\u2581she": 252,
  "\u2581For": 253,
  "\u2581which": 254,
  "\u25817": 255,
  "\u2581these": 256,
  "\u2581spirit": 257,
  "\u25816": 258,
  "\u1265": 259,
  "\u2581\u12ad\u122d\u1235\u1275\u12eb\u1293\u1275": 260,
  "\u2581They": 261,
  "\u2581\u12b0\u12ed\u1291": 262,
  "\u2581\u121d\u12f5\u122a": 263,
  "\u2581But": 264,
  "\u258112": 265,
  "\u2581need": 266,
  "\u2581faith": 267,
  "\u2581\u12f5\u1215\u122a": 268,
  "\u2581This": 269,
  "\u2581\u1366": 270,
  "\u2581\u12a2\u12ee\u121d": 271,
  "\u2581example": 272,
  "\u2581\u12a5": 273,
  "\u258113": 274,
  "\u2581because": 275,
  "the": 276,
  "\u2581family": 277,
  "\u2581says": 278,
  "\u2581children": 279,
  "\u2581made": 280,
  "\u2581\u12b5\u1209": 281,
  "\u2581\u121b\u1208\u1275": 282,
  "\u120b": 283,
  "\u2581As": 284,
  "\u2581\u1205\u12ed\u12c8\u1275": 285,
  "\u2581\u1235\u12a5\u120a": 286,
  "\u2581\u12a3\u1265\u12da": 287,
  "\u258114": 288,
  "\u2581*": 289,
  "\u2581\u12c0\u12ed\u1291": 290,
  "\u2581\u12a8\u121d\u12a1\u12cd\u1295": 291,
  "\u2581\u1260\u1272": 292,
  "\u2581spiritual": 293,
  "\u25819": 294,
  "\u2581If": 295,
  "\u1208": 296,
  "\u2581\u12d8\u12ed": 297,
  "\u2581only": 298,
  "\u12ca": 299,
  "\u258110": 300,
  "\u2581\u12a2\u12bb": 301,
  "\u2581see": 302,
  "\u2581must": 303,
  "\u2581congregation": 304,
  "\u2581being": 305,
  "\u2581\u12ab\u1265\u1272": 306,
  "\u2581You": 307,
  "\u2581\u12aa\u12b8\u12cd\u1295": 308,
  "\u2581\u12ad\u122d\u1235\u1276\u1235": 309,
  "\u2581\u12a3\u12ed\u12b0\u1290\u1295": 310,
  "\u2581\u1213\u1295\u1272": 311,
  "\u12ad\u1233\u12d5": 312,
  "\u2581\u1295\u12a3\u121d\u120b\u12bd": 313,
  "\u2581know": 314,
  "\u2581\u12d8\u120e\u1293": 315,
  "\u2581like": 316,
  "\u2581\u133d\u1261\u1255": 317,
  "\u2581\u12ab\u120d\u12a5": 318,
  "\u25818": 319,
  "\u2581heart": 320,
  "\u2581over": 321,
  "\u2581\u12da\u122d\u12a8\u1265": 322,
  "\u2581\u12da\u12bd\u12a5\u120d": 323,
  "\u2581then": 324,
  "\u2581\u12a8\u121d\u1272": 325,
  "\u2581\u1218\u1295\u1348\u1235": 326,
  "\u2581\u12a3\u1265\u1273": 327,
  "\u2581\u1265\u12d9\u1213\u1275": 328,
  "\u258117": 329,
  "\u2581true": 330,
  "\u2581words": 331,
  "\u2581come": 332,
  "\u2581\u12a5\u12da\u12a3": 333,
  "\u2581\u12d5\u12ee": 334,
  "\u2581\u1270": 335,
  "\u2581take": 336,
  "\u12b8": 337,
  "\u2581\u1218\u12dd\u1219\u122d": 338,
  "\u2581\u1215\u1302": 339,
  "\u2581\u1295\u12bd\u12a5\u120d": 340,
  "\u2581\u1275\u121d\u1205\u122d\u1272": 341,
  "\u2581\u12d8\u1208\u12ce\u121d": 342,
  "\u2581\u1260\u12da": 343,
  "\u2581well": 344,
  "\u2581\u12ad\u122d\u1235\u1275\u12eb\u1295": 345,
  "\u2581\u12a3\u12ed": 346,
  "\u258120": 347,
  "\u2581\u12c5\u1209": 348,
  "\u2581death": 349,
  "\u2581\u121d\u1209\u12a5": 350,
  "\u2581\u1245\u12f5\u121a": 351,
  "\u2581ones": 352,
  "\u2581\u12dd\u12a3\u1218\u1230\u1208": 353,
  "\u2581become": 354,
  "\u2581own": 355,
  "\u2581\u1309\u1263\u12a4": 356,
  "\u12a1": 357,
  "\u2581\u134d\u1255\u122a": 358,
  "\u2581\u1218\u12d3\u120d\u1272": 359,
  "\u2581its": 360,
  "\u2581\u133d\u1211\u134b\u1275": 361,
  "\u2581before": 362,
  "\u1273": 363,
  "\u2581\u12d8\u1208\u12c9": 364,
  "\u2581\u1290\u1273": 365,
  "b": 366,
  "\u2581\u12a8\u121d\u12a1": 367,
  "\u2581\u1243\u120d": 368,
  "\u2581\u1270\u1235\u134b": 369,
  "\u2581just": 370,
  "\u2581\u12d3\u12ed\u1290\u1275": 371,
  "\u258116": 372,
  "\u2581That": 373,
  "\u2581\u12a3\u1208\u12ce": 374,
  "\u2581\u1205\u12dd\u1262": 375,
  "\u2581men": 376,
  "\u2581two": 377,
  "\u2581\u12a3\u12dd\u12e9": 378,
  "\u2581after": 379,
  "\u2581might": 380,
  "\u2581\u12bd": 381,
  "\u2581\u1308\u12ed\u1229": 382,
  "\u122d": 383,
  "\u2581name": 384,
  "\u2581\u1218\u1295\u1348\u1233\u12ca": 385,
  "\u2581And": 386,
  "\u2581Word": 387,
  "\u2581give": 388,
  "\u2581\u12a3\u120e\u1293": 389,
  "\u2581\u1265\u121d\u1263\u120d": 390,
  "\u2581now": 391,
  "\u2581\u12a5\u1270": 392,
  "\u2581David": 393,
  "\u2581\u1235\u12f5\u122b": 394,
  "\u2581\u12ab\u120d\u12a6\u1275": 395,
  "\u2581truth": 396,
  "\u2581\u12c0\u1290": 397,
  "\u12a8": 398,
  "\u2581\u1290\u1260\u1229": 399,
  "\u2581new": 400,
  "\u2581any": 401,
  "d": 402,
  "\u2581\u1295\u12a3\u1265\u1290\u1275": 403,
  "\u2581\u12a8": 404,
  "\u2581\u12b8\u121d\u12da": 405,
  "\u2581John": 406,
  "\u120e\u121d": 407,
  "\u2581\u12dd\u1260\u1208": 408,
  "\u2581\u120e\u121a": 409,
  "\u2581\u12f5\u12e9": 410,
  "\u2581another": 411,
  "\u12ed": 412,
  "\u258119": 413,
  "\u2581\u1295\u1231": 414,
  "\u2581\u120d\u12d5\u120a": 415,
  "\u2581\u1266\u1273": 416,
  "\u2581Picture": 417,
  "\u2581person": 418,
  "\u2581times": 419,
  "\u2581study": 420,
  "\u2581Satan": 421,
  "\u1273\u1275": 422,
  "\u2581very": 423,
  "\u2581through": 424,
  "\u2581\u12a5\u1275": 425,
  "\u2581much": 426,
  "\u2581\u12da\u1265\u120d": 427,
  "\u12a3": 428,
  "\u2581today": 429,
  "\u2581brothers": 430,
  "\u2581\u1290\u12ed\u122e\u121d": 431,
  "\u12cb": 432,
  "\u2581To": 433,
  "\u2581\u1308\u1208": 434,
  "\u2581\u12a3\u1308\u120d\u130d\u120e\u1275": 435,
  "\u2581apostle": 436,
  "\u12bb": 437,
  "\u2581\u1218\u12c8\u12f3\u12a5\u1273": 438,
  "\u2581parents": 439,
  "\u2581\u12a5\u121d\u1290\u1275": 440,
  "\u25811,": 441,
  "\u2581\u121d\u12bd\u1295\u12eb\u1275": 442,
  "t": 443,
  "\u2581find": 444,
  "\u2581found": 445,
  "\u258121": 446,
  "\u2581\u1275\u12bd\u12a5\u120d": 447,
  "\u1232": 448,
  "\u2581\u12d8\u12ed\u12b0\u1290\u1235": 449,
  "\u2581Israel": 450,
  "\u1200": 451,
  "\u2581part": 452,
  "\u1276\u121d": 453,
  "\u2581himself": 454,
  "\u2581great": 455,
  "\u2581put": 456,
  "\u2581where": 457,
  "\u2581feel": 458,
  "\u2581learn": 459,
  "\u2581However": 460,
  "\u2581\u12a3\u1308\u12f3\u1232": 461,
  "\u2022": 462,
  "\u2581\u12b8\u120e": 463,
  "\u2581Do": 464,
  "\u2581young": 465,
  "\u2581most": 466,
  "\u2581against": 467,
  "\u120d": 468,
  "\u2581\u12dd\u12c0\u1291": 469,
  "\u2581\u12a5\u12db": 470,
  "E": 471,
  "\u2581One": 472,
  "\u2581keep": 473,
  "\u2581\u2022": 474,
  "I": 475,
  "\u2581say": 476,
  "\u2581Father": 477,
  "\u2581human": 478,
  "\u2581use": 479,
  "\u2581\u130d\u1265\u122a": 480,
  "\u12eb": 481,
  "\u2581show": 482,
  "\u258122": 483,
  "\u2581So": 484,
  "\u2581wrote": 485,
  "\u2581Peter": 486,
  "\u2581means": 487,
  "\u2581\u12a5\u12c8": 488,
  "\u2581\u122d\u12ad\u1265": 489,
  "\u2581each": 490,
  "\u2581\u1203\u12cb\u122d\u12eb": 491,
  "\u2581why": 492,
  "\u2581\u1295\u1309\u1235": 493,
  "\u258118": 494,
  "\u2581\u12a3\u1265\u1290\u1275": 495,
  "\u2581home": 496,
  "\u2581faithful": 497,
  "\u2581right": 498,
  "\u25813:": 499,
  "\u2581book": 500,
  "\u2581worship": 501,
  "\u2581\u133d\u1211\u134d": 502,
  "\u2581ministry": 503,
  "\u2581\u12c8\u12f2": 504,
  "\u2581long": 505,
  "\u2581\u12d3\u1265\u12ea": 506,
  "\u2581end": 507,
  "\u2581though": 508,
  "\u2581never": 509,
  "\u2581\u1213\u1233\u1265": 510,
  "\u2581word": 511,
  "\u2581same": 512,
  "\u12a6\u121d": 513,
  "\u2581\u12a5\u1295\u12bd\u12a5\u120d": 514,
  "\u258124": 515,
  "\u2581\u12da\u12b8\u12cd\u1295": 516,
  "\u2581important": 517,
  "\u2581\u12a3\u1262\u1209": 518,
  "\u12a9\u121d": 519,
  "\u2581used": 520,
  "\u2581\u1230\u12ed\u1323\u1295": 521,
  "\u2581\u12dc": 522,
  "\u2581place": 523,
  "\u2581read": 524,
  "\u2581\u1218\u133d\u1293\u12d5\u1272": 525,
  "\u258125": 526,
  "\u2581Some": 527,
  "\u2581\u1295\u12bb\u120d\u12a6\u1275": 528,
  "\u2581course": 529,
  "\u2581\u1230\u1265\u12a3\u12ed": 530,
  "\u2581news": 531,
  "\u2581upon": 532,
  "\u12f5": 533,
  "\u2581\u12f0\u1242": 534,
  "\u2581wife": 535,
  "\u2581At": 536,
  "\u12de\u121d": 537,
  "\u2581\u1265\u1213\u1242": 538,
  "\u2581under": 539,
  "\u2581\u120d\u12ad\u12d5": 540,
  "\u2581year": 541,
  "\u2581became": 542,
  "\u2581\u1308\u120a\u12a6\u121d": 543,
  "\u258123": 544,
  "\u2581\u1275": 545,
  "\u2581After": 546,
  "\u2581\u12d3\u1218\u1273\u1275": 547,
  "\u2581came": 548,
  "\u2581\u12ee\u1203\u1295\u1235": 549,
  "\u2581\u1265\u121d\u1209\u12a5": 550,
  "\u1271": 551,
  "e": 552,
  "\u2581mind": 553,
  "\u2581preaching": 554,
  "\u1276": 555,
  "\u2581holy": 556,
  "\u122b": 557,
  "\u2581let": 558,
  "\u2581go": 559,
  "\u2581\u12ad\u1275": 560,
  "\u2581\u12dd\u12eb\u12f3": 561,
  "\u25812:": 562,
  "\u2581\u12e8": 563,
  "\u2581\u12ad\u1295\u12f0\u12ed": 564,
  "\u2581\u121d\u1235\u1272": 565,
  "\u2581\u1218\u1320\u1295": 566,
  "\u2581too": 567,
  "\u2581\u12f3\u12ca\u1275": 568,
  "\u12a3\u1265": 569,
  "\u2581\u121e\u1275": 570,
  "\u2581\u12a5\u1295\u1270\u12c0\u1290": 571,
  "\u2581T": 572,
  "\u2581\u12f0\u12a3": 573,
  "\u2581told": 574,
  "\u2581back": 575,
  "\u2581often": 576,
  "\u25814:": 577,
  "\u2581\u12d8\u1218\u1295": 578,
  "\u2581\u12a8\u1218\u12ed": 579,
  "\u2581disciples": 580,
  "\u2581among": 581,
  "\u2581days": 582,
  "\u2581hope": 583,
  "\u2581\u12a5\u121d\u1260\u12a3\u122d": 584,
  "\u2581every": 585,
  "\u2581want": 586,
  "\u2581serve": 587,
  "\u2581\u12a3\u1228\u12a3\u12a5\u12eb": 588,
  "\u2581\u12bb\u1265\u1272": 589,
  "\u2581knowledge": 590,
  "\u2581service": 591,
  "\u2581\u1264\u1270": 592,
  "\u2581away": 593,
  "\u2581view": 594,
  "\u2581later": 595,
  "\u2581\u122d\u12a0": 596,
  "\u2581\u1265\u12d8\u12ed": 597,
  "\u2581\u1215\u130a": 598,
  "\u2581get": 599,
  "\u2581\u12a3\u1265\u12a1": 600,
  "\u2581began": 601,
  "y": 602,
  "\u2581By": 603,
  "\u1270": 604,
  "\u2581down": 605,
  "\u2581\u12c5\u1290\u1273\u1275": 606,
  "\u2581Is": 607,
  "\u2581Psalm": 608,
  "\u2581live": 609,
  "\u2581\u12ed\u12b8\u12cd\u1295": 610,
  "\u2581\u1275\u122d\u1315\u121d": 611,
  "\u2581\u12ad\u120d\u1270": 612,
  "\u2581Scriptures": 613,
  "\u2581C": 614,
  "\u2581during": 615,
  "\u12ee": 616,
  "\u2581consider": 617,
  "\u2581ways": 618,
  "\u25811:": 619,
  "\u2581\u1293\u1265\u1272": 620,
  "\u2581\u12ac": 621,
  "\u2581\u12ad\u122d\u1235\u1275\u12eb\u1293\u12ca": 622,
  "\u2581\u1215\u1276\u1273\u1275": 623,
  "\u2581\u1230\u121b\u12ed": 624,
  "\u2581\u12bd\u1275": 625,
  "\u2581\u12bd\u1295": 626,
  "\u2581\u12a5\u130d\u12da\u12a3\u1265\u1204\u122d": 627,
  "\u2581given": 628,
  "\u1275\u1295": 629,
  "\u2581\u12b0\u1290": 630,
  "\u2581am": 631,
  "\u2581\u1213\u12f5\u123d": 632,
  "\u2581\u12a3\u1290": 633,
  "\u2581Matthew": 634,
  "\u2581called": 635,
  "\u2581\u121d\u1233\u120c": 636,
  "\u2581gave": 637,
  "\u2581\u1218\u1300\u1218\u122d\u1273": 638,
  "S": 639,
  "\u2581doing": 640,
  "\u2581\u12b8\u1208\u12c9": 641,
  "\u2581\u1235\u1290": 642,
  "\u2581\u12a2\u120e\u121d": 643,
  "\u1213\u12f0": 644,
  "\u12cd": 645,
  "\u2581power": 646,
  "\u2581century": 647,
  "\u2581\u12a3\u1295\u1265\u1265": 648,
  "\u130b": 649,
  "\u2581\u12dd\u1290\u1260\u122e": 650,
  "\u2581\u1290\u134d\u1232": 651,
  "\u2581\u1334\u1325\u122e\u1235": 652,
  "\u2581His": 653,
  "\u2581\u134d\u120d\u1320\u1275": 654,
  "\u2581Our": 655,
  "\u2581\u1218": 656,
  "\u2581still": 657,
  "\u2581set": 658,
  "\u2581\u1213\u1310\u1235": 659,
  "\u1228": 660,
  "\u2581three": 661,
  "\u2581however": 662,
  "\u2581loving": 663,
  "\u2581\u12ad\u1295": 664,
  "\u2581On": 665,
  "\u2581\u1218\u1295": 666,
  "\u2581making": 667,
  "\u2581\u1230\u1260\u12ed\u1272": 668,
  "\u2581\u121b\u1274\u12ce\u1235": 669,
  "\u2581\u1263\u1205": 670,
  "\u2581able": 671,
  "\u2581peace": 672,
  "\u2581themselves": 673,
  "\u2581\u1308\u12ed\u122e\u121d": 674,
  "\u2581bring": 675,
  "\u2581living": 676,
  "\u2581servants": 677,
  "\u2581\u12bd\u1233\u12d5": 678,
  "\u2581\u1218\u1265\u12db\u1215\u1275\u12a1": 679,
  "\u2581father": 680,
  "\u2581old": 681,
  "\u2581\u1295\u12ba": 682,
  "\u2581\u121d\u130d\u1263\u122d": 683,
  "\u2581\u1295\u12bd": 684,
  "\u2581\u12a5\u1295": 685,
  "\u258128": 686,
  "\u2581whom": 687,
  "\u2581She": 688,
  "\u2581King": 689,
  "\u25816:": 690,
  "\u2581\u1235\u121d": 691,
  "\u2581fellow": 692,
  "\u1229": 693,
  "\u2581With": 694,
  "\u2581Yes": 695,
  "\u2581house": 696,
  "\u2581No": 697,
  "\u133d": 698,
  "\u2581humans": 699,
  "\u258130": 700,
  "\u2581fact": 701,
  "\u2581\u12da\u1308\u120d\u133d": 702,
  "\u2581\u12ed\u12bd\u12a5\u1209": 703,
  "\u2581\u12a5\u1235\u122b\u12a4\u120d": 704,
  "\u2581\u12ed\u1265\u120d": 705,
  "\u134d": 706,
  "\u2581\u1218\u1295\u130e": 707,
  "\u2581\u12d8\u120b": 708,
  "\u2581\u12a5\u12e8\u1295": 709,
  "\u2581always": 710,
  "\u2581There": 711,
  "\u2581took": 712,
  "\u2581full": 713,
  "n": 714,
  "\u2581\u1243\u120b\u1275": 715,
  "\u2581purpose": 716,
  "\u2581son": 717,
  "\u2581\u12a3\u130b\u1323\u121a": 718,
  "\u2581reason": 719,
  "\u2581\u1295\u120b\u12d5\u120a": 720,
  "\u2581hand": 721,
  "\u2581\u12dd\u1290\u1260\u1228\u1275": 722,
  "\u2581asked": 723,
  "\u12f0": 724,
  "\u2581\u12a3\u1208\u12c9": 725,
  "\u12d5": 726,
  "\u2581\u1235\u122d\u12d3\u1275": 727,
  "\u2581\u1295\u1213\u12f0": 728,
  "\u2581mankind": 729,
  "\u2581personal": 730,
  "\u2581\u12a3\u121d\u120d\u12be": 731,
  "\u2581\u12a5\u1270\u1348\u120b\u1208\u12e8": 732,
  "\u1263": 733,
  "\u2581without": 734,
  "\u2581\u12b8": 735,
  "\u2581both": 736,
  "\u2581\u12d8\u1260\u1208": 737,
  "The": 738,
  "\u2581prayer": 739,
  "\u2581order": 740,
  "\u2581\u121d\u12bd\u122a": 741,
  "\u2581marriage": 742,
  "\u2581child": 743,
  "\u2581result": 744,
  "\u2581\u12a3\u12bc\u1263": 745,
  "\u2581\u1275\u1215\u1272": 746,
  "\u2581\u1290\u12ca\u1215": 747,
  "\u2581\u122e\u121c": 748,
  "\u12dd": 749,
  "\u2581think": 750,
  "\u2581questions": 751,
  "\u2581\u12a3\u1208\u12ce\u121d": 752,
  "\u2581\u12d3\u1295\u1240\u133d": 753,
  "\u2581husband": 754,
  "\u2581\u12a5\u1235\u12a8": 755,
  "\u2581Then": 756,
  "\u2581Yet": 757,
  "\u2581article": 758,
  "\u2581\u12b5\u120e\u121d": 759,
  "\u2581while": 760,
  "\u12ce\u121d": 761,
  "\u2581\u12ad\u12b8\u12cd\u1295": 762,
  "\u2581Many": 763,
  "\u2581Son": 764,
  "\u121b": 765,
  "\u258126": 766,
  "\u2581From": 767,
  "\u2581joy": 768,
  "\u2581\u134d\u1209\u12ed": 769,
  "\u2581\u12f5\u1215\u122a\u12a1": 770,
  "\u2581Even": 771,
  "\u2581\u1295\u1215\u1293": 772,
  "\u2581\u123d\u12d1": 773,
  "al": 774,
  "\u2581\u1260\u1208\u1275": 775,
  "\u2581\u12a3\u1265\u12db": 776,
  "\u2581\u1245\u12f1\u1233\u1275": 777,
  "\u2581\u134d\u1228": 778,
  "\u2581\u1295\u12c5\u1209": 779,
  "\u2581something": 780,
  "\u2581\u12f0\u1240": 781,
  "\u2581really": 782,
  "\u1270\u1295": 783,
  "\u2581.": 784,
  "\u12f3": 785,
  "\u12d3": 786,
  "\u2581\u130c\u122d\u12ab": 787,
  "\u2581Jerusalem": 788,
  "\u2581\u12a5\u1219\u1293\u1275": 789,
  "\u2581meetings": 790,
  "\u2581woman": 791,
  "\u2581\u12dd\u12bd\u12a5\u120d": 792,
  "\u2581heaven": 793,
  "\u2581learned": 794,
  "\u2581\u1253\u120d": 795,
  "\u2581toward": 796,
  "\u2581\u1203\u12cb\u122d\u12eb\u1275": 797,
  "\u1218": 798,
  "\u2581brother": 799,
  "\u2581\u12d8\u12ed\u1265\u1209": 800,
  "\u2581Moses": 801,
  "\u2581mother": 802,
  "\u2581\u1273\u122a\u12bd": 803,
  "\u25812.": 804,
  "\u2581\u1213\u12eb\u120e": 805,
  "\u2581\u12a5\u1235\u122b\u12a4\u120b\u12cd\u12eb\u1295": 806,
  "\u2581\u1315\u12f3\u12ed": 807,
  "\u2581sin": 808,
  "\u2581\u12a3\u12bc\u1263\u1273\u1275": 809,
  "\u2581helped": 810,
  "\u2581future": 811,
  "\u2581\u12cb\u120b": 812,
  "\u2581\u1265\u1235\u122b\u1275": 813,
  "\u2581\u122d\u12a5\u1232": 814,
  "\u2581\u12dd\u1265\u120d": 815,
  "\u2581someone": 816,
  "\u2581\u120d\u1262": 817,
  "\u2581\u12cd\u130d\u12a5": 818,
  "\u2581Isaiah": 819,
  "\u2581\u1213\u1308\u12dd": 820,
  "\u2581together": 821,
  "\u2581having": 822,
  "\u2581\u121d": 823,
  "\u2581felt": 824,
  "\u2581\u12d5\u120b\u121b": 825,
  "\u1293\u1295": 826,
  "\u2581\u12a8\u1218\u12ed\u1232": 827,
  "\u2581wicked": 828,
  "\u130d": 829,
  "\u1240": 830,
  "\u2581religious": 831,
  "\u2581\u12a3\u1263\u120b\u1275": 832,
  "\u2581\u12c8\u12a8\u134d": 833,
  "\u2581Israelites": 834,
  "\u2581anointed": 835,
  "\u2581\u1213\u12ed\u120a": 836,
  "\u2581My": 837,
  "\u2581\u1230\u1208\u1235\u1270": 838,
  "\u2581\u12a5\u1270\u1295": 839,
  "\u2581\u1213\u12f3\u122d": 840,
  "\u2581\u1240\u12f3\u121b\u12ed": 841,
  "\u2581\u12a3\u1215\u12cb\u1275": 842,
  "\u2581\u12c8\u1208\u12f2": 843,
  "\u2581face": 844,
  "\u2581language": 845,
  "\u2581\u1218\u120d\u12a5\u12bd\u1272": 846,
  "\u2581between": 847,
  "\u2581\u1265\u12d8\u12ed\u12ab\u12da": 848,
  "\u2581\u1230\u120b\u121d": 849,
  "\u2581look": 850,
  "\u2581experience": 851,
  "\u12a5\u1272": 852,
  "\u2581counsel": 853,
  "\u2581\u1265\u12dd\u12eb\u12f3": 854,
  "\u2581\u1290": 855,
  "\u2581\u1308\u1295\u12d8\u1265": 856,
  "\u2581\u1338\u1265\u133b\u1265": 857,
  "\u12a5": 858,
  "\u258129": 859,
  "\u2581wisdom": 860,
  "\u2581happy": 861,
  "\u2581Let": 862,
  "\u2581close": 863,
  "\u2581\u12c8\u1275\u1229": 864,
  "\u122a": 865,
  "\u2581\u12a2\u12eb": 866,
  "\u2581city": 867,
  "\u2581\u121b\u12ed": 868,
  "\u1215": 869,
  "\u2581\u12a2\u1233\u12ed\u12eb\u1235": 870,
  "\u2581\u1265\u1218\u1295\u1348\u1235": 871,
  "\u2581relationship": 872,
  "\u258127": 873,
  "\u2581left": 874,
  "\u2581hard": 875,
  "\u2581message": 876,
  "\u2581\u1218\u12f3\u12ed": 877,
  "\u2581\u1230\u1293\u12ed": 878,
  "\u2581Abraham": 879,
  "\u2581share": 880,
  "\u2581New": 881,
  "\u2581needed": 882,
  "\u2581\u1235\u122b\u1215": 883,
  "\u2581\u12bc": 884,
  "\u2581B": 885,
  "\u2581\u1338\u120e\u1275": 886,
  "\u2581\u1338\u1308\u121b\u1275": 887,
  "\u2581\u1240": 888,
  "\u2581\u12a5\u1293": 889,
  "\u2581conduct": 890,
  "\u2581\u12a3\u1308\u120d\u1308\u120d\u1272": 891,
  "\u12aa": 892,
  "\u2581care": 893,
  "\u2581\u1213\u1322\u12a3\u1275": 894,
  "\u258133": 895,
  "\u2581eyes": 896,
  "\u2581possible": 897,
  "\u2581\u1203\u12ed\u121b\u1296\u1275": 898,
  "\u2581\u1203\u1308\u122d": 899,
  "\u1290": 900,
  "\u2581ask": 901,
  "\u2581\u12a5\u1275\u122d\u12a8\u1265": 902,
  "\u2581\u12b5\u1290\u1273\u1275": 903,
  "\u2581support": 904,
  "\u2581again": 905,
  "\u2581\u1295\u1230\u1263\u1275": 906,
  "\u2581\u1338\u1292\u1211": 907,
  "\u2581\u1215\u1276": 908,
  "\u258131": 909,
  "\u2581\u1235\u122d\u12d3\u1273\u1275": 910,
  "\u12ad": 911,
  "\u2581\u12a3\u12e8": 912,
  "\u2581\u12d8\u1208\u12cb": 913,
  "\u2581little": 914,
  "\u2581\u1260\u12d3\u120d": 915,
  "\u2581\u12a3\u12ed\u1201\u12f5": 916,
  "\u2581Job": 917,
  "\u2581benefit": 918,
  "\u2581king": 919,
  "\u2581few": 920,
  "\u2581heavenly": 921,
  "\u2581Proverbs": 922,
  "\u2581ever": 923,
  "\u2581following": 924,
  "\u2581All": 925,
  "\u2581\u12b0\u1295": 926,
  "\u2581known": 927,
  "\u2581\u12a2\u120d\u12ab": 928,
  "\u2581teaching": 929,
  "\u2581\u1218\u121d\u122d\u1212": 930,
  "\u2581best": 931,
  "\u2581ourselves": 932,
  "\u2581\u1253\u120b\u1275": 933,
  "\u2581W": 934,
  "\u2581done": 935,
  "\u2581elders": 936,
  "\u2581number": 937,
  "\u25813,": 938,
  "\u2581desire": 939,
  "\u2581continue": 940,
  "\u2581matter": 941,
  "\u2581\u1203\u1308\u122b\u1275": 942,
  "\u2581lives": 943,
  "\u2581understand": 944,
  "\u2581food": 945,
  "\u120d\u1293": 946,
  "\u2581\u1213\u12cd": 947,
  "\u2581\u1213\u12f5": 948,
  "\u2581\u1219\u1234": 949,
  "\u12a9": 950,
  "\u2581went": 951,
  "\u12e9": 952,
  "\u2581\u12dd\u122d\u12a8\u1265": 953,
  "\u2581\u1338\u1213\u1348": 954,
  "\u2581\u12da\u130d\u1260\u122d": 955,
  "\u1291": 956,
  "\u2581\u1213\u1233\u1263\u1275": 957,
  "\u2581fine": 958,
  "\u2581Luke": 959,
  "\u2581last": 960,
  "hose": 961,
  "\u2581\u1248\u1228\u1295\u1276\u1235": 962,
  "\u12db": 963,
  "\u2581\u1235\u1265\u12a8\u1275": 964,
  "\u2581\u133b\u12d5\u122a": 965,
  "\u2581free": 966,
  "\u2581bad": 967,
  "\u2581\u1218\u120d\u1232": 968,
  "\u2581\u12bb\u120d\u12a5": 969,
  "\u2581\u1235\u120d\u1323\u1295": 970,
  "ther": 971,
  "\u122d\u12a5\u1235\u1273": 972,
  "\u2581\u12aa\u12c0\u1291": 973,
  "\u2581baptized": 974,
  "\u2581different": 975,
  "\u2581\u1295\u122d\u12a0": 976,
  "\u2581righteous": 977,
  "\u2581ancient": 978,
  "\u2581cannot": 979,
  "\u2581\u122b\u12a5\u12ed": 980,
  "\u2581fear": 981,
  "\u2581nations": 982,
  "\u2581These": 983,
  "\u2581\u133d\u120d\u12cb": 984,
  "\u2581\u1215\u121b\u1255": 985,
  "\u2581\u1218\u1295\u12a5\u1230\u12eb\u1275": 986,
  "\u1208\u12ed": 987,
  "\u2581answer": 988,
  "\u2581\u1295\u12e8\u1231\u1235": 989,
  "\u2581\u121d\u1295\u132a": 990,
  "\u2581avoid": 991,
  "\u2581Consider": 992,
  "\u2581better": 993,
  "\u1213": 994,
  "\u2581serving": 995,
  "\u2581believe": 996,
  "\u2581wise": 997,
  "\u2581\u12ad\u1295\u12f2": 998,
  "\u2581account": 999,
  "\u2581giving": 1000,
  "\u2581\u1213\u120b\u134d\u1290\u1275": 1001,
  "\u1338": 1002,
  "\u2581Timothy": 1003,
  "\u2581near": 1004,
  "\u2581self": 1005,
  "\u2581present": 1006,
  "\u2581Your": 1007,
  "\u2581\u1290\u1260\u1228\u1275": 1008,
  "\u2581\u12a5\u1270\u1308\u1265\u1228": 1009,
  "\u258115,": 1010,
  "\u2581\u12a5\u1275\u1265\u120d": 1011,
  "\u2581\u1270\u1263\u1202\u1209": 1012,
  "\u2581sense": 1013,
  "\u2581friends": 1014,
  "\u2581problems": 1015,
  "-": 1016,
  "\u2581received": 1017,
  "\u2581Acts": 1018,
  "\u2581Because": 1019,
  "\u2581enjoy": 1020,
  "\u2581certain": 1021,
  "\u120a": 1022,
  "\u2581moved": 1023,
  "\u2581kindness": 1024,
  "\u2581\u1290\u12ed\u122b": 1025,
  "\u25819,": 1026,
  "\u2581along": 1027,
  "Read": 1028,
  "\u2581Although": 1029,
  "\u2581thought": 1030,
  "\u2581\u1233\u12d5": 1031,
  "\u2581\u12b0\u12ed\u1296\u121d": 1032,
  "\u2581\u130d\u121d\u1262": 1033,
  "\u2581early": 1034,
  "\u2581far": 1035,
  "\u2581law": 1036,
  "\u2581members": 1037,
  "\u2581\u1263\u1205\u122d\u12eb\u1275": 1038,
  "\u2581saw": 1039,
  "\u2581nor": 1040,
  "\u2581\u12dd\u1218\u1338": 1041,
  "\u2581off": 1042,
  "\u2581\u1295\u12d8\u1208\u12a3\u1208\u121d": 1043,
  "er": 1044,
  "\u2581Greek": 1045,
  "\u2581Lord": 1046,
  "\u2581yourself": 1047,
  "\u2581\u1293\u12ed\u1272": 1048,
  "\u2581speak": 1049,
  "\u25816,": 1050,
  "\u2581age": 1051,
  "\u2581Law": 1052,
  "\u2581land": 1053,
  "\u2581\u123d\u121b\u130d\u1208\u1273\u1275": 1054,
  "\u2581knew": 1055,
  "\u2581since": 1056,
  "\u2581kind": 1057,
  "\u1260": 1058,
  "\u2581mean": 1059,
  "\u2581\u1290\u1260\u122d\u12a9": 1060,
  "\u2581\u12dd\u1308\u1260\u122e": 1061,
  "\u25815,": 1062,
  "\u2581Adam": 1063,
  "\u2581Jews": 1064,
  "\u2581feelings": 1065,
  "\u2581states": 1066,
  "\u2581system": 1067,
  "\u2581yet": 1068,
  "\u2581attitude": 1069,
  "\u2581\u12b8\u1270\u121b": 1070,
  "\u2581women": 1071,
  "\u2581\u12a5\u1275\u12bd\u12a5\u120d": 1072,
  "\u2581\u12a8\u1262\u12f5": 1073,
  "\u2581\u12d8\u1265\u12d0\u129b": 1074,
  "\u25814.": 1075,
  "C": 1076,
  "\u12c8": 1077,
  "\u2581\u1235\u1315\u121d\u1272": 1078,
  "\u12b9\u121d": 1079,
  "\u2581\u1260\u1228\u12b8\u1275": 1080,
  "\u2581next": 1081,
  "\u2581saying": 1082,
  "\u2581\u1265\u1230\u1295\u12aa": 1083,
  "\u258140": 1084,
  "\u2581point": 1085,
  "\u2581situation": 1086,
  "\u2581prophet": 1087,
  "\u258110.": 1088,
  "\u2581thus": 1089,
  "\u2581\u1212\u12f0\u1275": 1090,
  "\u2581\u12a8\u12ed": 1091,
  "\u2581receive": 1092,
  "\u2581brought": 1093,
  "\u2581Does": 1094,
  "\u2581difficult": 1095,
  "\u2581trust": 1096,
  "\u2581attention": 1097,
  "\u2581\u12e8\u1229\u1233\u120c\u121d": 1098,
  "\u2581sure": 1099,
  "\u2581THE": 1100,
  "\u2581\u12a5\u1219\u1295": 1101,
  "\u2581case": 1102,
  "\u2581needs": 1103,
  "\u258132": 1104,
  "\u2581act": 1105,
  "\u2581reading": 1106,
  "\u2581respect": 1107,
  "\u2581suffering": 1108,
  "\u2581\u12dd\u1203\u1266": 1109,
  "\u12bd": 1110,
  "\u2581followers": 1111,
  "\u258112:": 1112,
  "\u2581Thus": 1113,
  "\u2581real": 1114,
  "\u2581until": 1115,
  "\u2581\u121d\u1235\u12ad\u122d": 1116,
  "\u2581\u1275\u1265\u120d": 1117,
  "\u2581\u1213\u1260\u122c\u1273": 1118,
  "\u2581question": 1119,
  "\u2581\u1308\u120a\u12a1": 1120,
  "\u2581lead": 1121,
  "\u2581\u1260": 1122,
  "\u2581\u1213\u1236\u1275": 1123,
  "\u2581likely": 1124,
  "\u2581Who": 1125,
  "\u1233": 1126,
  "\u2581follow": 1127,
  "\u2581\u1245\u1291\u12d5": 1128,
  "\u2581\u130c\u122d\u1293": 1129,
  "\u2581high": 1130,
  "\u2581principles": 1131,
  "\u2581\u12dd\u12b8\u12cd\u1295": 1132,
  "\u25818.": 1133,
  "\u2581Corinthians": 1134,
  "\u2581turn": 1135,
  "\u2581\u1295\u12d5\u12a1": 1136,
  "\u2581\u1300\u1218\u1228": 1137,
  "\u2581died": 1138,
  "\u2581\u1218\u1235\u12cb\u12a5\u1272": 1139,
  "\u2581\u1235\u121d\u12d2\u1275": 1140,
  "\u2581Of": 1141,
  "\u2581whole": 1142,
  "\u2581especially": 1143,
  "\u2581money": 1144,
  "\u2581remain": 1145,
  "\u2581cause": 1146,
  "\u2581\u121d\u12c3\u1295": 1147,
  "\u2581around": 1148,
  "\u12a6": 1149,
  "\u2581\u12a5\u12da\u12a3\u1276\u121d": 1150,
  "\u25819.": 1151,
  "\u2581temple": 1152,
  "\u2581soon": 1153,
  "\u2581\u1338\u1308\u121d": 1154,
  "\u25817.": 1155,
  "\u2581water": 1156,
  "\u2581\u1290\u12ed\u1228": 1157,
  "\u2581married": 1158,
  "\u2581school": 1159,
  "\u258114.": 1160,
  "\u2581thinking": 1161,
  "\u2581information": 1162,
  "\u2581\u1265\u134d\u120b\u12ed": 1163,
  "\u2581Can": 1164,
  "\u2581dead": 1165,
  "\u2581wanted": 1166,
  "\u2581\u12a8\u1270\u121b": 1167,
  "\u2581\u1325\u1260\u1265": 1168,
  "\u2581\u1218\u133b\u12a2": 1169,
  "\u2581\u1265\u1218\u1230\u1228\u1275": 1170,
  "\u2581Joseph": 1171,
  "\u2581including": 1172,
  "\u258112.": 1173,
  "\u2581\u1218\u12db\u1219\u122d\u1272": 1174,
  "\u2581Read": 1175,
  "\u2581\u1295\u12a5\u123d\u1276": 1176,
  "\u2581Watchtower": 1177,
  "\u2581body": 1178,
  "\u2581teach": 1179,
  "\u1230": 1180,
  "\u2581talk": 1181,
  "\u2581\u12a3\u1266": 1182,
  "\u2581\u12ab\u1265\u1276\u121d": 1183,
  "\u258111.": 1184,
  "\u2581Such": 1185,
  "\u2581taught": 1186,
  "\u2581makes": 1187,
  "\u2581pray": 1188,
  "\u2581More": 1189,
  "\u2581nation": 1190,
  "\u2581\u1215\u121b\u121d": 1191,
  "\u2581sons": 1192,
  "\u2581\u1213\u12eb\u120d": 1193,
  "\u2581blood": 1194,
  "\u2581light": 1195,
  "\u2581Since": 1196,
  "\u2581\u12ad\u1295\u12a8\u12cd\u1295": 1197,
  "\u2581\u1275\u1295\u1262\u1275": 1198,
  "\u2581individuals": 1199,
  "st": 1200,
  "\u123d": 1201,
  "\u25815.": 1202,
  "\u2581wrong": 1203,
  "\u12f2": 1204,
  "\u258117.": 1205,
  "\u2581\u12a8\u12ed\u1270\u1228\u1348": 1206,
  "\u2581\u133d\u1215\u1348\u1275": 1207,
  "\u2581Solomon": 1208,
  "\u2581provide": 1209,
  "\u25818,": 1210,
  "\u2581Romans": 1211,
  "\u2581spiritually": 1212,
  "\u2581strong": 1213,
  "\u2581\u121d\u1235\u1276\u121d": 1214,
  "\u121a": 1215,
  "\u2581\u1218\u1230\u120d": 1216,
  "\u2581\u12da\u12bd\u12a5\u1209": 1217,
  "\u2581\u1290\u1260\u122e": 1218,
  "\u2581\u12f5": 1219,
  "\u2581religion": 1220,
  "\u2581sent": 1221,
  "\u2581\u1295\u121d\u122d\u12ab\u1265": 1222,
  "\u2581Are": 1223,
  "\u2581\u12a5\u130d\u1228": 1224,
  "\u2581happiness": 1225,
  "\u258114,": 1226,
  "\u258113.": 1227,
  "\u2581change": 1228,
  "\u2581going": 1229,
  "\u2581\u1209\u1243\u1235": 1230,
  "\u2581\u12a8\u1208\u1293": 1231,
  "\u2581\u12a3\u12ed\u1275": 1232,
  "\u2581\u1325\u1255\u121a": 1233,
  "\u1255": 1234,
  "\u2581allow": 1235,
  "\u2581everlasting": 1236,
  "\u1325": 1237,
  "\u25814,": 1238,
  "\u2581Devil": 1239,
  "\u2581\u12bb\u1265\u1276\u121d": 1240,
  "\u2581special": 1241,
  "\u2581\u12a3\u12ab\u120d": 1242,
  "\u2581small": 1243,
  "\u2581\u12c4\u1295\u1293": 1244,
  "\u2581\u121d\u1293\u120d\u1263\u1275": 1245,
  "\u258110:": 1246,
  "\u2581Revelation": 1247,
  "\u2581\u1322\u121e\u1274\u12ce\u1235": 1248,
  "\u2581\u1348\u1208\u121b": 1249,
  "\u2581works": 1250,
  "\u2581\u12cd\u1233\u1290": 1251,
  "\u2581Rather": 1252,
  "\u2581\u12eb\u12a5\u1246\u1265": 1253,
  "\u2581\u134d\u1253\u12f5": 1254,
  "\u2581\u12da\u1215\u1265\u122d": 1255,
  "\u121d\u1295": 1256,
  "\u2581qualities": 1257,
  "\u12da": 1258,
  "\u2581resurrection": 1259,
  "\u2581\u1265\u1293\u12ed": 1260,
  "\u2581\u1295\u1235\u12bb": 1261,
  "\u2581\u12da\u1290\u1265\u1229": 1262,
  "\u2581\u12a5\u1272\u12a3": 1263,
  "\u2581heard": 1264,
  "\u25816.": 1265,
  "\u2581World": 1266,
  "\u2581\u1218\u1255\u12f0\u1235": 1267,
  "\u258115.": 1268,
  "\u2581apostles": 1269,
  "\u2581kingdom": 1270,
  "\u2581sacrifice": 1271,
  "\u2581\u1308\u120a\u12a3\u1276\u121d": 1272,
  "\u2581gives": 1273,
  "\u2581\u12ad\u134d\u120a": 1274,
  "\u2581matters": 1275,
  "\u2581taking": 1276,
  "\u2581\u1308\u1293": 1277,
  "hile": 1278,
  "\u258116.": 1279,
  "\u2581\u12b8\u12ed": 1280,
  "\u2581sisters": 1281,
  "\u2581whe": 1282,
  "th": 1283,
  "\u2581\u12dd\u12c0\u1290\u1275": 1284,
  "\u2581Creator": 1285,
  "\u2581\u122d\u12a5\u1231": 1286,
  "\u2581\u12a5\u12ee\u1265": 1287,
  "\u2581Footnote": 1288,
  "\u2581\u1313\u120d": 1289,
  "\u2581\u12dc\u12f0\u1295\u1255": 1290,
  "\u2581\u12ab\u1265\u12da": 1291,
  "\u2581nothing": 1292,
  "\u2581\u1230\u1265\u12a1\u1275": 1293,
  "in": 1294,
  "\u2581perfect": 1295,
  "\u2581Not": 1296,
  "\u2581\u12ed\u1348\u120d\u1325": 1297,
  "\u2581\u130d\u1261\u12a5": 1298,
  "\u258137": 1299,
  "\u2581divine": 1300,
  "\u1293\u12ed": 1301,
  "\u2581mentioned": 1302,
  "\u2581night": 1303,
  "m": 1304,
  "\u2581\u121d\u1235\u12a1": 1305,
  "\u2581\u134d\u122d\u12f2": 1306,
  "\u2581war": 1307,
  "\u2581four": 1308,
  "\u2581health": 1309,
  "\u2581slave": 1310,
  "\u2581\u1265\u12d3\u120d": 1311,
  "\u1295\u12f2": 1312,
  "\u2581Would": 1313,
  "\u2581James": 1314,
  "\u2581group": 1315,
  "\u2581loved": 1316,
  "\u2581false": 1317,
  "\u122e": 1318,
  "\u2581\u121d\u120b\u123d": 1319,
  "\u2581certainly": 1320,
  "\u2581righteousness": 1321,
  "\u2581inspired": 1322,
  "\u2581sheep": 1323,
  "\u2581\u1308\u1208\u1338": 1324,
  "\u2581\u12ed\u12a8\u12a3\u120d": 1325,
  "\u2581\u1295\u12c5\u120e\u121d": 1326,
  "\u2581\u1308\u1290\u1275": 1327,
  "\u1210": 1328,
  "\u1231": 1329,
  "\u12b8\u1218\u12ed": 1330,
  "\u2581comes": 1331,
  "\u2581\u12d8\u12ed\u12b0\u1290": 1332,
  "espite": 1333,
  "\u25817,": 1334,
  "\u2581gift": 1335,
  "\u1203": 1336,
  "\u2581\u12da\u1260\u1203\u120d": 1337,
  "o": 1338,
  "\u12f1": 1339,
  "\u2581Hebrew": 1340,
  "\u25813.": 1341,
  "\u2581\u1245": 1342,
  "\u2581shows": 1343,
  "\u2581similar": 1344,
  "\u258110,": 1345,
  "\u1349": 1346,
  "\u2581clear": 1347,
  "\u2581\u1265\u130d\u12dc": 1348,
  "\u2581strength": 1349,
  "\u2581\u1295\u1339\u122d": 1350,
  "\u2581Be": 1351,
  "\u2581material": 1352,
  "\u2581\u1213\u12f3\u1235": 1353,
  "\u2581circumstances": 1354,
  "\u2581\u12d8\u122d\u12a2": 1355,
  "\u2581D": 1356,
  "\u2581S": 1357,
  "\u2581\u1325\u1255\u1232": 1358,
  "\u2581involved": 1359,
  "\u2581second": 1360,
  "\u2581\u121d\u130d\u1262": 1361,
  "\u2581Today": 1362,
  "\u2581\u12a2\u120d\u1293": 1363,
  "\u2581control": 1364,
  "\u2581fully": 1365,
  "\u2581\u12d5\u12f5\u1218": 1366,
  "\u2581\u1218\u12db\u1219\u122d\u1271": 1367,
  "\u2581\u12dd\u1290\u1260\u122e\u121d": 1368,
  "\u258118:": 1369,
  "\u122e\u121d": 1370,
  "\u2581truly": 1371,
  "\u2581\u12a5\u1275\u1260\u1203\u120d": 1372,
  "\u2581sister": 1373,
  "\u2581\u12bd\u120d\u1270": 1374,
  "\u2581large": 1375,
  "\u2581thing": 1376,
  "\u2581\u12d8\u1208\u12a3\u1208\u121d": 1377,
  "A": 1378,
  "\u2581meaning": 1379,
  "\u258111,": 1380,
  "\u2581\u1218\u12d3\u120d\u1275\u1273\u1275": 1381,
  "\u2581imitate": 1382,
  "\u2581\u1218\u1295\u12a5\u1230\u12ed": 1383,
  "\u2581Dur": 1384,
  "\u2581provided": 1385,
  "\u2581wonderful": 1386,
  "\u2581\u1213\u12f0\u130b": 1387,
  "\u2581accept": 1388,
  "\u2581Genesis": 1389,
  "\u2581based": 1390,
  "\u2581\u1218\u1308\u12f5\u1273\u1275": 1391,
  "\u2581\u12a5\u1270\u12c8\u1230\u1290": 1392,
  "\u134b": 1393,
  "\u2581Daniel": 1394,
  "\u2581taken": 1395,
  "\u2581\u12a2\u12b9\u121d": 1396,
  "\u2581try": 1397,
  "\u2581understanding": 1398,
  "\u2581\u12d8\u120e\u12ab": 1399,
  "\u1308": 1400,
  "\u2581\u12a3\u1265\u122d\u1203\u121d": 1401,
  "\u2581\u1270\u12c8\u1233\u12ba": 1402,
  "\u2581lived": 1403,
  "\u2581\u1295\u121d\u130d\u1263\u122d": 1404,
  "\u2581\u130d\u12dc\u1293": 1405,
  "\u1261": 1406,
  "\u2581interest": 1407,
  "\u2581Did": 1408,
  "\u2581draw": 1409,
  "\u2581evidence": 1410,
  "\u2581prayers": 1411,
  "\u2581\u12cd\u123d\u1322": 1412,
  "\u2581forever": 1413,
  "\u2581\u12f0\u1245\u1230\u1265": 1414,
  "\u2581Scriptural": 1415,
  "\u2581\u12ed\u1308\u120d\u133d": 1416,
  "\u2581congregations": 1417,
  "\u2581\u12a3\u1250\u12f2\u1219": 1418,
  "\u1219": 1419,
  "\u2581return": 1420,
  "\u2581\u121d\u12d5\u122b\u134d": 1421,
  "\u2581\u1265\u1295\u1339\u122d": 1422,
  "\u2581\u1293\u1265\u122b": 1423,
  "\u2581\u12a5\u1295\u12f0\u1308\u1293": 1424,
  "\u2581\u12d3\u1260\u12ed\u1272": 1425,
  "\u2581\u1263\u122d\u12eb": 1426,
  "\u2581\u12a3\u1266\u12a1": 1427,
  "\u2581\u12ab\u120d\u12a3\u12ed": 1428,
  "\u2581\u124b\u1295\u124b": 1429,
  "\u2581\u12c4\u1295\u12ab": 1430,
  "\u2581\u12f0\u121d": 1431,
  "\u2581Pictures": 1432,
  "\u2581effort": 1433,
  "\u2581started": 1434,
  "\u2581\u12d8\u134d\u1325\u1228\u1275": 1435,
  "\u2581\u1290\u1265\u12ea": 1436,
  "\u258112,": 1437,
  "r": 1438,
  "\u2581comfort": 1439,
  "\u2581\u12da\u1235\u12d5\u1265": 1440,
  "\u2581coming": 1441,
  "\u2581showed": 1442,
  "\u2581\u1265\u1270\u1218\u1233\u1233\u120a": 1443,
  "\u2581Noah": 1444,
  "\u2581\u1230\u120e\u121e\u1295": 1445,
  "\u2581\u1290\u1260\u122d\u1293": 1446,
  "\u12e8": 1447,
  "\u2581stand": 1448,
  "\u2581\u12c8\u122d\u1212": 1449,
  "\u2581local": 1450,
  "\u2581past": 1451,
  "\u2581\u1213": 1452,
  "\u2581\u12cd\u120d\u1240": 1453,
  "\u2581\u1295\u12bd\u1275": 1454,
  "\u258116,": 1455,
  "\u2581\u12a2\u12e8": 1456,
  "\u2581\u12f0": 1457,
  "\u2581seen": 1458,
  "\u2581\u1295\u1233\u1276\u121d": 1459,
  "\u2581Like": 1460,
  "\u2581leave": 1461,
  "\u2581\u1230\u121b\u12eb\u12ca": 1462,
  "\u2581\u1265\u12d8\u12e8\u1308\u12f5\u1235": 1463,
  "\u2581\u133e\u1273": 1464,
  "\u2581anyone": 1465,
  "\u2581prophecy": 1466,
  "\u25812,": 1467,
  "\u2581gain": 1468,
  "\u2581written": 1469,
  "\u2581\u12dc\u122d\u12a2": 1470,
  "\u2581\u130c\u130b": 1471,
  "\u258118.": 1472,
  "\u2581N": 1473,
  "\u2581tell": 1474,
  "\u2581rule": 1475,
  "\u2581\u1260\u120e\u121d": 1476,
  "You": 1477,
  "\u2581examples": 1478,
  "\u2581pioneer": 1479,
  "\u2581meeting": 1480,
  "\u2581once": 1481,
  "\u2581physical": 1482,
  "\u2581blessings": 1483,
  "\u2581according": 1484,
  "\u2581using": 1485,
  "\u2581\u12a5\u1265\u122b\u12cd\u12eb\u1295": 1486,
  "\u2581\u12ed\u1255\u1228": 1487,
  "\u2581loyal": 1488,
  "\u258113,": 1489,
  "\u2581\u12a3\u1205\u12db\u1265": 1490,
  "\u2581doubt": 1491,
  "\u2581\u122d\u12a5\u1236\u121d": 1492,
  "\u2581\u1263\u1215\u122a": 1493,
  "\u2581\u12a3\u1218\u122a\u12ab": 1494,
  "\u2581witness": 1495,
  "\u2581kept": 1496,
  "\u2581lost": 1497,
  "\u2581\u1338\u1213\u134d": 1498,
  "\u2581regard": 1499,
  "\u120e": 1500,
  "\u2581country": 1501,
  "\u2581\u1310\u12ed\u1273": 1502,
  "\u2581promise": 1503,
  "\u2581heavens": 1504,
  "\u2581\u1315\u1305\u1208": 1505,
  "\u258134": 1506,
  "\u2581efforts": 1507,
  "\u2581please": 1508,
  "\u2581\u12a8\u120b": 1509,
  "\u2581Hebrews": 1510,
  "\u2581Jewish": 1511,
  "\u2581therefore": 1512,
  "\u2581privilege": 1513,
  "\u2581s": 1514,
  "\u2581\u12d5\u1264\u1275": 1515,
  "\u2581\u12cd\u1209\u12f3\u1275": 1516,
  "\u2581further": 1517,
  "\u2581\u1308\u1260\u1228": 1518,
  "\u2581simply": 1519,
  "\u2581\u12a3\u12ed\u1290\u1260\u1228\u1295": 1520,
  "\u2581soul": 1521,
  "\u2581shall": 1522,
  "\u2581speaking": 1523,
  "\u2581blessing": 1524,
  "\u2581\u1205\u12ed\u12c8\u1271": 1525,
  "\u2581\u1218\u1265\u12db\u1215\u1275\u12a6\u121d": 1526,
  "\u2581\u1255\u12f5\u121a": 1527,
  "\u1205": 1528,
  "\u2581authority": 1529,
  "\u2581born": 1530,
  "\u2581organization": 1531,
  "\u2581\u1266\u1273\u1273\u1275": 1532,
  "\u2581\u12ed\u1308\u1265\u122d": 1533,
  "\u2581\u1265\u121d\u130d\u1263\u122d": 1534,
  "\u2581deep": 1535,
  "\u2581\u1295\u1293\u12ed": 1536,
  "\u2581\u1348\u1270\u1293": 1537,
  "\u2581here": 1538,
  "\u2581\u12f2\u12bb": 1539,
  "\u2581\u1218\u120b\u12a5": 1540,
  "\u2581\u1275\u12b8\u12cd\u1295": 1541,
  "\u2581\u12da\u1218\u133d\u12a5": 1542,
  "\u2581already": 1543,
  "\u2581opportunity": 1544,
  "\u2581\u121d\u12c3\u1296\u121d": 1545,
  "\u2581call": 1546,
  "\u1348": 1547,
  "\u2581\u1295\u12d3\u1293": 1548,
  "\u2581rather": 1549,
  "\u2581Their": 1550,
  "\u2581Will": 1551,
  "\u2581greater": 1552,
  "\u2581preach": 1553,
  "\u2581\u1270\u1308\u120a\u1339": 1554,
  "\u2581\u1290\u1270\u1295": 1555,
  "\u2581\u1248\u120d\u12d1": 1556,
  "\u2581confidence": 1557,
  "\u12ab\u1265": 1558,
  "\u2581Instead": 1559,
  "\u2581promises": 1560,
  "\u2581served": 1561,
  "\u2581\u1205\u12ed\u12c8\u1275\u1293": 1562,
  "\u12d8": 1563,
  "\u2581hearts": 1564,
  "\u2581spoke": 1565,
  "\u133b": 1566,
  "\u2581standards": 1567,
  "\u2581\u1218\u12a8\u122b": 1568,
  "\u2581believers": 1569,
  "\u2581glory": 1570,
  "\u2581move": 1571,
  "\u2581Still": 1572,
  "\u2581\u12d3\u12f2": 1573,
  "\u2581Now": 1574,
  "\u2581friend": 1575,
  "\u2581\u1218\u122d\u1275\u12d6": 1576,
  "\u2581anything": 1577,
  "\u2581\u12a2\u120b": 1578,
  "\u2581\u12da\u1308\u1265\u122d": 1579,
  "\u2581\u1290\u12db": 1580,
  "\u2581\u12c0\u12ed\u1296\u121d": 1581,
  "\u2581apply": 1582,
  "\u2581longer": 1583,
  "\u2581powerful": 1584,
  "\u2581\u12a8\u1270": 1585,
  "\u2581maintain": 1586,
  "\u2581pages": 1587,
  "\u2581\u1208\u12cd\u1322": 1588,
  "\u2581effect": 1589,
  "\u2581value": 1590,
  "\u2581\u1218\u1260\u120d": 1591,
  "\u2581\u1245\u1261\u12a3\u1275": 1592,
  "\u2581\u12f3\u122d": 1593,
  "\u2581Jeremiah": 1594,
  "\u2581\u1295\u12bd\u1295": 1595,
  "\u2581\u130d\u12dd\u12a3\u1275": 1596,
  "\u2581form": 1597,
  "\u2581\u1325\u12d5\u1293": 1598,
  "\u2581public": 1599,
  "\u1218\u133d\u1213\u134d": 1600,
  "\u2581\u1270\u1218\u12ad\u122e": 1601,
  "\u2581Samuel": 1602,
  "\u2581\u1218\u1265\u133d\u12d3": 1603,
  "Jehovah": 1604,
  "\u2581decisions": 1605,
  "\u2581regarding": 1606,
  "\u2581\u12a2\u1208": 1607,
  "\u2581\u1328\u1295\u1348\u122d": 1608,
  "\u2581willing": 1609,
  "\u2581\u12dd\u1290\u1260\u122b": 1610,
  "\u2581\u1325\u1295\u1272": 1611,
  "\u2581\u1213\u133a\u122d": 1612,
  "\u2581\u12a3\u1266\u12ed": 1613,
  "\u258119.": 1614,
  "\u2581Mary": 1615,
  "\u1208\u1295": 1616,
  "\u2581\u12ad\u1295\u1308\u1265\u122d": 1617,
  "\u2581\u12dd\u1213\u1208\u1348": 1618,
  "\u2581named": 1619,
  "\u2581\u12e8\u130d\u12f3\u1235": 1620,
  "\u2581\u1308\u12db\u12a5": 1621,
  "\u2581According": 1622,
  "\u2581helps": 1623,
  "\u2581\u1265\u122d\u130d\u133d": 1624,
  "\u2581continued": 1625,
  "\u2581Roman": 1626,
  "\u2581honor": 1627,
  "\u2581\u130d\u12f0": 1628,
  "),": 1629,
  "God": 1630,
  "\u2581perhaps": 1631,
  "\u2581serious": 1632,
  "\u2581vital": 1633,
  "\u2581\u12c8\u133b\u12a2": 1634,
  "\u12a0\u1295": 1635,
  "\u2581within": 1636,
  "\u2581\u1265\u122d\u1271\u12d5": 1637,
  "\u2581prove": 1638,
  "\u2581\u1275\u12a5\u12db\u12dd": 1639,
  "\u2581\u12a3\u122d\u1263\u12d5\u1270": 1640,
  "\u2581\u133d\u1211\u134b": 1641,
  "\u1320": 1642,
  "\u258119,": 1643,
  "\u2581People": 1644,
  "\u2581older": 1645,
  "\u2581\u1309\u1263\u12a4\u1273\u1275": 1646,
  "\u2581Hence": 1647,
  "\u2581\u12a3\u1295\u1235\u1272": 1648,
  "\u2581\u12b8\u1263\u1262": 1649,
  "\u258135": 1650,
  "\u2581months": 1651,
  "\u2581deal": 1652,
  "\u2581decision": 1653,
  "\u2581got": 1654,
  "\u2581\u12f0\u120a\u12bb": 1655,
  "\u2581\u12a3\u120b": 1656,
  "c": 1657,
  "\u2581\u1230\u12d3\u1275": 1658,
  "\u2581\u1348\u133a\u1219": 1659,
  "\u2581angels": 1660,
  "\u2581events": 1661,
  "\u2581\u1265\u1250\u120a\u1209": 1662,
  "\u2581direction": 1663,
  "\u2581\u12bd\u1295\u1308\u1265\u122d": 1664,
  "\u2581answers": 1665,
  "\u2581\u1235\u130b": 1666,
  "\u2581\u12f0\u12cd": 1667,
  "\u2581considered": 1668,
  "\u2581die": 1669,
  "\u2581hands": 1670,
  "\u2581\u1308\u120a\u1339": 1671,
  "\u2581\u12ed\u12c0\u1291": 1672,
  "\u258117,": 1673,
  "\u2581stated": 1674,
  "\u2581\u1218\u130d\u1208\u133a": 1675,
  "\u2581\u1295\u12b8": 1676,
  "\u2581\u134d\u1339\u121d": 1677,
  "\u2581hear": 1678,
  "\u2581Mark": 1679,
  "\u2581\u12f5\u1215\u122d\u12da": 1680,
  "\u1245": 1681,
  "\u134a": 1682,
  "\u1262": 1683,
  "\u2581\u12ed\u1201\u12f3": 1684,
  "\u1250": 1685,
  "\u25818:": 1686,
  "\u2581everything": 1687,
  "\u2581PAGE": 1688,
  "\u2581history": 1689,
  "\u12f0\u1242": 1690,
  "\u2581hold": 1691,
  "\u2581instance": 1692,
  "\u2581integrity": 1693,
  "\u2581O": 1694,
  "\u2581offer": 1695,
  "\u2581couple": 1696,
  "\u2581recorded": 1697,
  "\u258150": 1698,
  "\u2581\u12a3\u12f0": 1699,
  "\u2581appointed": 1700,
  "\u2581remember": 1701,
  "\u2581explained": 1702,
  "\u2581thoughts": 1703,
  "\u2581\u1218\u1230\u1228\u1273\u12ca": 1704,
  "ting": 1705,
  "\u1296": 1706,
  "\u2581\u120d\u1265\u1293": 1707,
  "\u2581\u12cd\u1205\u1260\u1275": 1708,
  "\u2581accepted": 1709,
  "\u2581common": 1710,
  "\u2581changed": 1711,
  "\u2581listen": 1712,
  "\u2581\u1270\u130d\u1263\u122d": 1713,
  "\u2581\u12f5\u12eb\u1265\u120e\u1235": 1714,
  "\u2581\u12a3\u1275\u1212\u12d9": 1715,
  "\u2581Saul": 1716,
  "\u2581Witness": 1717,
  "\u2581field": 1718,
  "\u2581teachings": 1719,
  "\u2581\u1260\u1273": 1720,
  "\u2581conscience": 1721,
  "\u2581\u12ab\u1265\u12a1": 1722,
  "\u1209\u1295": 1723,
  "\u2581activities": 1724,
  "\u2581Indeed": 1725,
  "\u2581Life": 1726,
  "\u2581visit": 1727,
  "\u2581determined": 1728,
  "\u2581\u1260\u120e": 1729,
  "\u2581held": 1730,
  "\u2581led": 1731,
  "\u2581branch": 1732,
  "\u2581judgment": 1733,
  "\u2581\u12f0\u1228\u1303": 1734,
  "\u2581\u12dd\u1213\u12d8": 1735,
  "\u2581\u25aa": 1736,
  "\u2581appreciation": 1737,
  "\u2581Eve": 1738,
  "\u2581An": 1739,
  "\u2581ability": 1740,
  "\u2581strengthen": 1741,
  "\u2581\u1275\u1295\u1233\u12a4": 1742,
  "\u2581\u1233\u1219\u12a4\u120d": 1743,
  "\u2581\u12d8\u12ed\u1270": 1744,
  "\u2581published": 1745,
  "\u2581\u12a5\u12d8": 1746,
  "\u1315": 1747,
  "\u2581\u12e8\u1265\u1209\u1295": 1748,
  "\u2581\u122d\u130d\u1338\u129b": 1749,
  "\u2581psalmist": 1750,
  "\u2581text": 1751,
  "\u2581letter": 1752,
  "\u2581\u1265\u1270\u12f0\u130b\u130b\u121a": 1753,
  "\u12a3\u121d\u120b\u12bd": 1754,
  "\u2581experienced": 1755,
  "\u2581\u1270\u1218\u1233\u1233\u120a": 1756,
  "\u2581Watch": 1757,
  "\u2581available": 1758,
  "\u2581class": 1759,
  "\u2581Bethel": 1760,
  "\u2581chapter": 1761,
  "\u2581head": 1762,
  "\u2581\u12bb\u120d\u12a6\u1275": 1763,
  "\u2581\u12d8\u1228\u1263": 1764,
  "\u2581students": 1765,
  "\u2581godly": 1766,
  "es": 1767,
  "\u2581ransom": 1768,
  "\u2581United": 1769,
  "\u2581complete": 1770,
  "\u2581affect": 1771,
  "\u2581sins": 1772,
  "\u2581\u1203\u12ed\u121b\u1296\u1273\u12ca": 1773,
  "over": 1774,
  "\u2581government": 1775,
  "\u2581role": 1776,
  "\u121e": 1777,
  "\u2581alone": 1778,
  "\u2581appreciate": 1779,
  "\u2581advice": 1780,
  "\u2581seek": 1781,
  "\u122d\u1295": 1782,
  "\u2581area": 1783,
  "\u2581\u1325\u1253": 1784,
  "\u2581flesh": 1785,
  "\u2581happened": 1786,
  "\u2581\u130d\u121d\u1275": 1787,
  "\u2581build": 1788,
  "\u2581\u1250\u1295\u12f2": 1789,
  "\u2581promised": 1790,
  "\u2581\u12bd\u134b\u120d": 1791,
  "\u2581\u121d\u1203\u1265": 1792,
  "\u2581\u1265\u122d\u1203\u1295": 1793,
  "\u2581\u1296\u1205": 1794,
  "\u2581\u12a3\u12bd\u1265\u122e\u1275": 1795,
  "\u258118,": 1796,
  "\u2581covenant": 1797,
  "\u2581\u12a4\u134c\u1236\u1295": 1798,
  "\u2581True": 1799,
  "\u120d\u12ab": 1800,
  "\u2581\u1218\u120b\u12a5\u12bd\u1272": 1801,
  "\u2581proved": 1802,
  "\u2581forth": 1803,
  "\u2581influence": 1804,
  "\u2581wants": 1805,
  "\u122d\u12a2": 1806,
  "\u2581\u12d8\u12e8": 1807,
  "\u2581First": 1808,
  "\u2581ago": 1809,
  "\u2581moral": 1810,
  "\u2581source": 1811,
  "\u2581various": 1812,
  "\u2581\u12dd\u1260\u1203\u120d": 1813,
  "\u2581clearly": 1814,
  "\u2581\u1233\u1339\u1295": 1815,
  "\u2581\u12a3\u1270\u1213\u1233\u1235\u1263": 1816,
  "\u2581\u130d\u122a\u12bd": 1817,
  "\u1270\u12ed": 1818,
  "\u2581May": 1819,
  "\u2581baptism": 1820,
  "ction": 1821,
  "\u2581issue": 1822,
  "\u2581walk": 1823,
  "\u2581whose": 1824,
  "See": 1825,
  "\u2581offered": 1826,
  "\u2581Egypt": 1827,
  "\u2581church": 1828,
  "\u2581problem": 1829,
  "\u2581\u12a3\u1338\u1262\u1251": 1830,
  "\u121d\u1235": 1831,
  "\u12d0": 1832,
  "\u2581described": 1833,
  "\u2581poor": 1834,
  "\u2581\u12a3\u12ed\u1270": 1835,
  "\u12ba": 1836,
  "\u2581Society": 1837,
  "\u2581\u1264\u1271": 1838,
  "\u2581\u12ee\u1234\u134d": 1839,
  "\u2581assignment": 1840,
  "\u2581\u130d\u1265\u133a": 1841,
  "\u2581Therefore": 1842,
  "\u2581\u1295\u12dd": 1843,
  "\u2581foretold": 1844,
  "\u2581\u12dd\u1218\u120d\u12a6": 1845,
  "\u2581helping": 1846,
  "\u2581Brother": 1847,
  "\u2581praise": 1848,
  "\u2581\u12c8\u12f1": 1849,
  "\u2581earlier": 1850,
  "\u2581express": 1851,
  "\u2581\u12a3\u1338\u130b\u121a": 1852,
  "\u2581worldwide": 1853,
  "\u2581\u12aa\u12f3\u1295": 1854,
  "\u2581created": 1855,
  "\u2581\u1265\u1205\u12ed\u12c8\u1275": 1856,
  "\u2581\u12d5\u123d\u123d": 1857,
  "\u2581\u12d3\u1230\u122d\u1270": 1858,
  "\u2581harmony": 1859,
  "\u2581met": 1860,
  "\u2581\u1205\u12ed\u12c8\u1276\u121d": 1861,
  "\u258120.": 1862,
  "\u2581Just": 1863,
  "\u2581\u12f3\u1295\u12a4\u120d": 1864,
  "\u2581attend": 1865,
  "\u2581meet": 1866,
  "\u2581open": 1867,
  "\u2581precious": 1868,
  "\u2581earthly": 1869,
  "\u2581training": 1870,
  "\u2581\u1265\u1218\u1295\u1348\u1233\u12ca": 1871,
  "\u2581\u1275\u1215\u1275\u1293": 1872,
  "l": 1873,
  "\u12d8\u1295": 1874,
  "\u2581reasons": 1875,
  "\u2581modern": 1876,
  "\u2581subject": 1877,
  "\u2581\u1230\u1265\u12a3\u12ca": 1878,
  "less": 1879,
  "\u2581Hall": 1880,
  "\u2581respond": 1881,
  "\u2581\u12a3\u1263\u120d": 1882,
  "\u2581reach": 1883,
  "\u2581w": 1884,
  "\u2581\u121b\u1215\u1260\u122d": 1885,
  "\u2581\u122d\u12a5\u1235\u1293": 1886,
  "\u2581\u122d\u12a5\u1235\u12bb": 1887,
  "\u2581Have": 1888,
  "\u2581concern": 1889,
  "\u2581easy": 1890,
  "\u2581several": 1891,
  "\u2581\u1293\u1265\u12a1": 1892,
  "\u2581else": 1893,
  "\u2581\u125b\u1295\u124b": 1894,
  "\u2581\u12c8\u1295\u130c\u120d": 1895,
  "\u258124:": 1896,
  "\u2581obey": 1897,
  "\u2581\u1215\u1261\u122b\u1275": 1898,
  "\u2581\u1215\u1273\u121d": 1899,
  "\u2581\u12ad\u1265\u122a": 1900,
  "\u2581itself": 1901,
  "\u2581practical": 1902,
  "\u2581\u1295\u1325\u1348\u1273\u1275": 1903,
  "\u2581\u12a5\u12da\u12a3\u1270\u1295": 1904,
  "\u2581\u1315\u12f3\u12eb\u1275": 1905,
  "\u2581guidance": 1906,
  "\u2581\u1263\u12d5\u1209": 1907,
  "\u2581\u1295\u12bc": 1908,
  "\u2581\u12a3\u1290\u1295": 1909,
  "\u2581books": 1910,
  "\u2581period": 1911,
  "\u2581\u12a0\u120e\u12b9": 1912,
  "\u2581\u12a3\u1208\u12cb": 1913,
  "\u2581\u12cd\u133d\u12a2\u1275": 1914,
  "\u2581activity": 1915,
  "\u2581mate": 1916,
  "\u2581\u120a": 1917,
  "\u2581\u1218\u133b\u1215\u134d\u1272": 1918,
  "\u2581\u1235": 1919,
  "\u2581\u12dc\u1218\u120d\u12ad\u1275": 1920,
  "\u2581\u130d\u1293\u12b8": 1921,
  "\u2581See": 1922,
  "\u2581raised": 1923,
  "\u2581\u121d\u1238\u1275": 1924,
  "\u2581Most": 1925,
  "\u2581five": 1926,
  "\u2581Later": 1927,
  "\u2581courage": 1928,
  "\u2581\u1292\u12cd": 1929,
  "\u2581pain": 1930,
  "\u2581\u1240\u12f3\u121e\u1275": 1931,
  "\u1243": 1932,
  "\u1253": 1933,
  "\u2581NW": 1934,
  "\u2581\u12a3\u12f5\u120b\u12ea": 1935,
  "\u12ee\u121d": 1936,
  "\u2581\u1218\u12d3\u1235": 1937,
  "\u2581tried": 1938,
  "\u2581office": 1939,
  "\u2581\u120b\u12d5\u120a": 1940,
  "\u2581\u1218\u1230\u1228\u1275": 1941,
  "\u2581\u12e8\u120d\u1266\u1295": 1942,
  "\u1235\u12d5\u1265": 1943,
  "\u2581action": 1944,
  "\u2581\u1270\u130d\u1263\u122b\u1275": 1945,
  "\u2581\u1265\u1213\u1263\u122d": 1946,
  "\u2581actions": 1947,
  "\u12c8\u1295": 1948,
  "\u2581regular": 1949,
  "\u2581convention": 1950,
  "\u2581\u1265\u121d": 1951,
  "\u2581position": 1952,
  "\u2581\u121d\u130d\u1263\u122b\u12ca": 1953,
  "\u2581\u12da\u122d\u12a8\u1261": 1954,
  "\u2581languages": 1955,
  "\u2581birth": 1956,
  "\u2581provides": 1957,
  "\u2581working": 1958,
  "\u2581\u12a3\u12ed\u12ad\u12a5\u120d\u1295": 1959,
  "\u2581responsibility": 1960,
  "org": 1961,
  "\u2581daughter": 1962,
  "\u2581trials": 1963,
  "or": 1964,
  "\u2581Jacob": 1965,
  "\u2581regularly": 1966,
  "\u2581\u12a8\u1208\u12b9": 1967,
  "\u2581carry": 1968,
  "\u2581expression": 1969,
  "\u2581accurate": 1970,
  "\u2581\u1218\u133d\u1214\u1275": 1971,
  "\u2581\u1260\u1303": 1972,
  "\u2581\u1325\u1255\u1235\u1273\u1275": 1973,
  "\u2581Messiah": 1974,
  "\u2581develop": 1975,
  "\u2581indeed": 1976,
  "\u2581\u1218\u1295\u130d\u1235\u1275\u1273\u1275": 1977,
  "\u2581\u12dd\u1260\u120e": 1978,
  "\u2581start": 1979,
  "\u2581myself": 1980,
  "\u2581\u134d\u122d\u1203\u1275": 1981,
  "\u2581above": 1982,
  "\u2581actually": 1983,
  "\u2581\u122d\u12a5\u1230": 1984,
  "\u1265\u12bb\u120d\u12a5": 1985,
  "\u2581seem": 1986,
  "\u2581rest": 1987,
  "\u2581\u12b8\u121d\u12a1": 1988,
  "\u2581\u12da\u1290\u1265\u122d": 1989,
  "\u25aa": 1990,
  "\u12eb\u1270": 1991,
  "\u2581Judah": 1992,
  "\u2581grow": 1993,
  "\u2581\u12a4\u122d\u121d\u12eb\u1235": 1994,
  "\u2581evil": 1995,
  "\u2581\u12a5\u1270\u1218\u1235\u1228\u1270": 1996,
  "\u1323": 1997,
  "\u2581clean": 1998,
  "\u258160": 1999,
  "\u2581\u121d\u120d\u12ad\u1275": 2000,
  "\u2581\u1275\u1348\u120d\u1325": 2001,
  "\u2581learning": 2002,
  "\u2581occasion": 2003,
  "\u2581six": 2004,
  "\u2581\u1270\u1320\u1252\u1231": 2005,
  "\u2581stay": 2006,
  "\u2581\u1265\u1215\u1273\u12ca": 2007,
  "\u2581\u1295\u12f0\u1240": 2008,
  "\u2581\u12a5\u1270\u12db\u1228\u1266": 2009,
  "\u2581\u12ab\u1265\u1273": 2010,
  "\u2581un": 2011,
  "\u2581\u1218\u12d3\u120d\u1273\u12ca": 2012,
  "\u2581\u1295\u121d\u12f5\u122a": 2013,
  "ic": 2014,
  "\u2581encouraged": 2015,
  "\u2581explains": 2016,
  "\u2581\u1295\u1235\u12f5\u122b": 2017,
  "\u2581\u12a8\u1263\u1262": 2018,
  "\u2581\u12a8\u12ed\u1338\u1295\u1210": 2019,
  "\u2581\u1338\u1260\u1263": 2020,
  "\u2581takes": 2021,
  "\u2581\u1265\u1209\u133d": 2022,
  "\u2581\u12a3\u1308\u1263\u1265": 2023,
  "\u2581\u12dc\u1210\u1315\u1235": 2024,
  "\u2581creation": 2025,
  "\u2581neither": 2026,
  "\u2581\u121c\u1270\u122d": 2027,
  "\u2581\u12ed\u130d\u1263\u12a5": 2028,
  "to": 2029,
  "\u2581less": 2030,
  "\u2581missionary": 2031,
  "\u2581\u1265\u1270\u12a3\u121b\u1295\u1290\u1275": 2032,
  "\u12f0\u12a3": 2033,
  "\u2581daily": 2034,
  "\u2581\u1213\u12f5\u1290\u1275": 2035,
  "\u2581\u1263\u1262\u120e\u1295": 2036,
  "\u2581\u12a5\u1295\u1308\u1265\u122e": 2037,
  "\u2581everyone": 2038,
  "\u2581\u12e8\u1265\u120d\u1293\u1295": 2039,
  "\u2581laws": 2040,
  "\u2581\u12d3": 2041,
  "\u2581single": 2042,
  "\u2581\u12a5\u12a8\u12ed": 2043,
  "\u2581salvation": 2044,
  "\u2581\u12dd\u1308\u1260\u1228": 2045,
  "\u2581[\"": 2046,
  "\u2581\u1270\u1308\u12f3\u1235\u1290\u1275": 2047,
  "\u2581\u1215": 2048,
  "\u2581speech": 2049,
  "\u2581\u12b8\u1262\u12f5": 2050,
  "p": 2051,
  "\u2581\u12a3\u12ed\u1295": 2052,
  "\u2581choose": 2053,
  "\u2581decided": 2054,
  "\u2581discipline": 2055,
  "\u2581positive": 2056,
  "\u2581\u1205\u12eb\u12cd": 2057,
  "\u2581\u12a3\u1263\u130a\u12d5": 2058,
  "\u2581\u12a5\u1265\u122b\u12ed\u1235\u1322": 2059,
  "\u2581\u134d\u1325\u1228\u1275": 2060,
  "\u2581\u121d\u1295\u1263\u122d": 2061,
  "\u2581\u12a5\u12a9\u12ed": 2062,
  "\u2581\u12a3\u12f3\u121d": 2063,
  "\u2581eat": 2064,
  "\u2581results": 2065,
  "\u2581studying": 2066,
  "\u1251": 2067,
  "\u12ae": 2068,
  "\u2581knows": 2069,
  "\u2581servant": 2070,
  "\u2581\u124d\u133d\u122a": 2071,
  "\u258121.": 2072,
  "\u2581enough": 2073,
  "\u2581invited": 2074,
  "\u1266": 2075,
  "\u2581entire": 2076,
  "\u2581\u1235\u1253\u12ed": 2077,
  "\u2581\u1300\u1218\u122d\u12a9": 2078,
  "\u12ab\u1295": 2079,
  "\u2581addition": 2080,
  "\u2581\u1295\u1205\u12dd\u1261": 2081,
  "\u2581\u133d\u12f5\u1242": 2082,
  "\u2581literature": 2083,
  "\u2581\u12a5\u12b9\u120d": 2084,
  "\u2581Or": 2085,
  "\u2581appropriate": 2086,
  "\u1265\u1203\u120d": 2087,
  "\u2581E": 2088,
  "\u2581rich": 2089,
  "\u2581showing": 2090,
  "\u2581\u121a\u1235\u12ee\u1293\u12cd\u12eb\u1295": 2091,
  "\u2581\u12da\u12c0\u1291": 2092,
  "and": 2093,
  "\u2581changes": 2094,
  "\u1290\u1275": 2095,
  "\u2581focus": 2096,
  "\u2581fulfillment": 2097,
  "\u2581F": 2098,
  "\u2581endure": 2099,
  "\u2581\u1265\u12a5\u12a1": 2100,
  "\u2581\u12d3\u1235\u1262": 2101,
  "\u2581\u1325\u134d\u12a3\u1275": 2102,
  "\u2581behind": 2103,
  "\u2581d": 2104,
  "\u2581imperfect": 2105,
  "\u2581returned": 2106,
  "\u2581\u1218\u122b\u1215\u1272": 2107,
  "\u2581ten": 2108,
  "\u2581individual": 2109,
  "\u2581throughout": 2110,
  "\u2581centuries": 2111,
  "\u2581prayed": 2112,
  "\u2581\u12dd\u1260\u1208\u1338": 2113,
  "\u2581interested": 2114,
  "\u2581\u1213\u122b": 2115,
  "\u2581\u1265\u121d\u12c3\u1295": 2116,
  "\u2581Before": 2117,
  "\u2581States": 2118,
  "\u2581freedom": 2119,
  "\u2581interests": 2120,
  "\u2581\u1295\u12a3\u123d\u1271": 2121,
  "\u2581allowed": 2122,
  "\u2581door": 2123,
  "\u2581\u1218\u12f3\u12eb\u1275": 2124,
  "\u2581\u1295\u12b8\u12ed": 2125,
  "\u2581\u12da\u122d\u12a0": 2126,
  "\u2581challenge": 2127,
  "\u2581general": 2128,
  "\u2581proper": 2129,
  "\u2581turned": 2130,
  "\u12b9": 2131,
  "\u2581force": 2132,
  "\u2581millions": 2133,
  "\u1310": 2134,
  "\u2581Credit": 2135,
  "\u2581stop": 2136,
  "\u00a9": 2137,
  "\u2581seeking": 2138,
  "\u2581\u1295\u12da": 2139,
  "\u2581\u12d8\u12ed\u1265\u120e\u121d": 2140,
  "\u258170": 2141,
  "\u2581enemies": 2142,
  "\u2581\u1240\u133a\u1209": 2143,
  "\u2581\u12a0\u1228": 2144,
  "\u2581\u12da\u130d\u1263\u12a5": 2145,
  "\u2581Love": 2146,
  "\u2581write": 2147,
  "\u12a5\u1270\u12c8\u1230\u1290": 2148,
  "\u2581humble": 2149,
  "\u2581\u1240\u1228\u1263": 2150,
  "\u1290\u1272": 2151,
  "\u2581Another": 2152,
  "\u2581\u1213\u1265\u1272": 2153,
  "\u2581\u1240\u120a\u120d": 2154,
  "\u2581blessed": 2155,
  "\u2581elder": 2156,
  "\u2581\u12dd\u12a3\u1218\u1230\u1209": 2157,
  "\u1296\u121d": 2158,
  "\u2581Though": 2159,
  "\u2581\u1325\u1260\u1263\u12ca": 2160,
  "\u2581reflect": 2161,
  "\u2581\u12b8\u1270": 2162,
  "\u2581voice": 2163,
  "\u2581\u12d3\u1263\u12ed": 2164,
  "\u2581\u1348\u1270\u1293\u1273\u1275": 2165,
  "\u2581destruction": 2166,
  "\u2581\u12d8\u1208\u1293": 2167,
  "\u2581\u12d8\u130b\u1320\u1218": 2168,
  "\u1290\u12ca\u1215": 2169,
  "\u2581paradise": 2170,
  "\u2581places": 2171,
  "\u2581Others": 2172,
  "\u2581display": 2173,
  "\u2581enjoyed": 2174,
  "\u2581\u12da\u12f0\u120d\u12e9": 2175,
  "\u2581natural": 2176,
  "\u2581realize": 2177,
  "\u2581tree": 2178,
  "\u2581\u12dd\u1235\u1219": 2179,
  "\u2581\u12dd\u1308\u120d\u133d": 2180,
  "\u2581genuine": 2181,
  "\u2581illustration": 2182,
  "\u2581\u1263\u1205\u130a": 2183,
  "\u2581\u1275\u121d\u1205\u122d\u1275\u1273\u1275": 2184,
  "\u2581practice": 2185,
  "\u2581seven": 2186,
  "\u1290\u134d\u1232": 2187,
  "\u2581worked": 2188,
  "\u2581\u12a3\u1218\u1295\u1272": 2189,
  "\u2581\u134d\u1255\u122d\u1295": 2190,
  "\u1238": 2191,
  "\u2581lands": 2192,
  "\u2581\u12dd\u1290\u1260\u122d\u12a9": 2193,
  "\u2581\u1300\u1218\u1229": 2194,
  "\u258120,": 2195,
  "\u2581becoming": 2196,
  "\u2581caused": 2197,
  "\u2581families": 2198,
  "\u2581\u1213\u1219\u123d\u1270": 2199,
  "\u2581\u121d\u122d\u12a3\u12ed": 2200,
  "\u2581bear": 2201,
  "\u258116:": 2202,
  "\u2581justice": 2203,
  "\u2581\u121d\u130d\u120d\u130b\u120d": 2204,
  "\u2581\u1295\u1233": 2205,
  "\u2581\u12a5\u1270\u1348\u120d\u12e8": 2206,
  "\u2581\u12da\u1265\u1203\u120d": 2207,
  "re": 2208,
  "\u2581image": 2209,
  "\u2581\u1218\u12f0\u1265": 2210,
  "\u2581\u1218\u1338": 2211,
  "\u2581\u121b\u12a5\u1230\u122d\u1272": 2212,
  "\u2581\u12aa\u1308\u1265\u1229": 2213,
  "\u2581\u121d\u122d\u12f3\u12a5": 2214,
  "\u2581\u12ad\u1295\u12f3\u12a1\u1235": 2215,
  "\u2581\u12da\u121d\u120d\u12a8\u1275": 2216,
  "\u2581\u1265\u12d5\u12f5\u1218": 2217,
  "jw": 2218,
  "\u2581crowd": 2219,
  "\u2581desires": 2220,
  "\u2581tells": 2221,
  "\u2581\u121b\u12aa\u1293": 2222,
  "\u2581\u12ad\u1275\u12a8\u12cd\u1295": 2223,
  "\u12aa\u120e": 2224,
  "\u2581prison": 2225,
  "\u2581knowing": 2226,
  "\u2581sign": 2227,
  "\u2581\u134d\u133b\u1218": 2228,
  "....": 2229,
  "\u2581violence": 2230,
  "\u2581\u1338\u1213\u12ed": 2231,
  "\u2581\u12a5\u1270\u12f3\u1208\u12c8": 2232,
  "\u2581personality": 2233,
  "\u2581\u12a3\u1308\u120d\u130b\u120a": 2234,
  "\u12f5\u12a3": 2235,
  "\u2581encourage": 2236,
  "\u2581deeply": 2237,
  "\u2581enable": 2238,
  "\u2581\u121d\u1295\u1263\u1229": 2239,
  "\u2581protect": 2240,
  "\u2581\u12a8\u1290": 2241,
  "\u2581include": 2242,
  "\u2581\u12ad\u1275\u1308\u1265\u122d": 2243,
  "\u1293\u12ee": 2244,
  "\u2581Us": 2245,
  "\u2581exercise": 2246,
  "\u2581job": 2247,
  "\u2581suffer": 2248,
  "\u2581\u12a5\u1270\u1320\u1255\u1230": 2249,
  "ness": 2250,
  "\u2581beyond": 2251,
  "\u2581\u12cd\u12f5\u1265": 2252,
  "\u2581\u12da\u1308\u1265\u122e": 2253,
  "\u2581\u12dd\u122d\u122d\u1265": 2254,
  "\u2581assigned": 2255,
  "\u2581English": 2256,
  "\u2581\u1205\u12ed\u12c8\u1270\u12ed": 2257,
  "\u2581\u1230\u122b\u12ca\u1275": 2258,
  "\u2581\u12dc\u12f5\u120d\u12ee\u121d": 2259,
  "\u2581goal": 2260,
  "\u2581\u1230": 2261,
  "\u2581\u12b8\u1290": 2262,
  "\u2581\u134d\u133b\u1218\u1273\u1275": 2263,
  "\u2581sexual": 2264,
  "\u2581shown": 2265,
  "\u2581\u12dd\u1218\u1339": 2266,
  "\u258138": 2267,
  "\u2581\u1235\u130b\u12ca": 2268,
  "\u2581\u12da\u1308\u1265\u122d\u12ce": 2269,
  "\u2581\u12dc\u1265\u120d": 2270,
  "\u258136": 2271,
  "\u2581faced": 2272,
  "\u2581mercy": 2273,
  "\u2581quality": 2274,
  "\u2581alive": 2275,
  "\u2581\u120d\u1263": 2276,
  "\u2581\u1218\u1320\u1295\u1240\u1255\u1273": 2277,
  "\u2581\u12d8\u120e\u1292": 2278,
  "\u2581\u1320\u1253\u121a": 2279,
  "\u2581\u1364": 2280,
  "\u2581favor": 2281,
  "\u2581former": 2282,
  "\u2581original": 2283,
  "\u2581\u121b\u122d\u1246\u1235": 2284,
  "\u2581\u1265\u121d\u1203\u1265": 2285,
  "\u2581\u121d\u12c9\u1273\u1275": 2286,
  "\u2581basis": 2287,
  "\u2581cultivate": 2288,
  "\u2581short": 2289,
  "\u2581\u12a3\u1218\u1213\u12f3\u122a": 2290,
  "\u2581\u12bd\u134d\u120a": 2291,
  "\u2581\u12d3\u1262": 2292,
  "\u2581\u12f0\u1308\u134d": 2293,
  "\u2581benefits": 2294,
  "\u2581happen": 2295,
  "\u2581record": 2296,
  "\u2581\u1230\u12d3\u1265": 2297,
  "\u2581\u1255\u12f1\u1235": 2298,
  "\u2581\u1290\u1260\u122e\u121d": 2299,
  "\u2581member": 2300,
  "\u2581\u12cb\u130b": 2301,
  "\u2581\u134d\u1255\u122b\u12ca": 2302,
  "\u2581\u123d\u121b\u130d\u1208": 2303,
  "\u2581\u12dd\u12d3\u1260\u12e8": 2304,
  "\u2581countries": 2305,
  "\u2581\u1265\u12db\u12d5\u1263\u12a1": 2306,
  "\u121e\u121d": 2307,
  "\u2581encouragement": 2308,
  "\u2581\u1265\u12da\u121d\u120d\u12a8\u1275": 2309,
  "\u2581\u1295\u1230\u1265": 2310,
  "\u12d1": 2311,
  "\u2581fulfilled": 2312,
  "\u2581miles": 2313,
  "\u2581sacrifices": 2314,
  "\u2581warning": 2315,
  "\u2581\u12a6\u121d": 2316,
  "\u2581Keep": 2317,
  "\u2581\u1230\u1219\u1295": 2318,
  "\u2581\u12bd\u1275\u12a8\u12cd\u1295": 2319,
  "\u2581\u134d\u1209\u1325": 2320,
  "\u2581Great": 2321,
  "\u2581beginning": 2322,
  "\u2581leaders": 2323,
  "\u2581\u12dc\u1320\u1253\u120d\u120d": 2324,
  "\u2581behalf": 2325,
  "\u2581seems": 2326,
  "\u2581education": 2327,
  "\u2581translation": 2328,
  "\u2581\u1295\u1213\u12f5\u1215\u12f6\u121d": 2329,
  "\u2581\u12a3\u134d": 2330,
  "\u1211": 2331,
  "\u2581Ephesians": 2332,
  "\u2581condition": 2333,
  "\u2581\u12a5\u12dd\u1235": 2334,
  "\u2581arrived": 2335,
  "\u2581publications": 2336,
  "\u2581\u1295\u12a3": 2337,
  "\u2581angel": 2338,
  "\u2581\u1213\u12f0\u1308\u129b": 2339,
  "\u2581\u1270\u1263\u1202\u120b": 2340,
  "If": 2341,
  "\u2581Babylon": 2342,
  "\u2581Perhaps": 2343,
  "\u2581wonder": 2344,
  "\u2581\u12d8\u12ed\u1275": 2345,
  "\u2581acts": 2346,
  "\u2581least": 2347,
  "\u2581\u1263\u1205\u122d\u12ed": 2348,
  "\u2581\u12c0\u1291": 2349,
  "\u2581anger": 2350,
  "\u2581sacred": 2351,
  "\u2581traveling": 2352,
  "\u2581walking": 2353,
  "\u2581\u12d5\u122d\u12ad\u1290\u1275": 2354,
  "\u2581brings": 2355,
  "\u2581sound": 2356,
  "\u2581\u1212\u12d9": 2357,
  "\u2581Joshua": 2358,
  "\u2581\u12a3\u120e\u12ab": 2359,
  "\u2581\u12d8\u12ed\u12ad\u12a5\u120d": 2360,
  "\u2581\u12dd\u1235\u12d5\u1265": 2361,
  "\u2581Elijah": 2362,
  "\u2581Holy": 2363,
  "\u2581thousands": 2364,
  "\u2581\u121d\u12c3\u1293": 2365,
  "\u2581\u1338\u1255\u1322": 2366,
  "an": 2367,
  "\u2581accounts": 2368,
  "\u2581priest": 2369,
  "\u2581unity": 2370,
  "\u2581\u12a3\u12ed\u12b0\u1291\u1295": 2371,
  "\u258145": 2372,
  "\u2581expect": 2373,
  "\u2581firm": 2374,
  "\u2581greatest": 2375,
  "\u2581necessary": 2376,
  "\u2581\u12da\u1218\u1235\u120d": 2377,
  "\u2581beliefs": 2378,
  "\u2581building": 2379,
  "\u2581completely": 2380,
  "\u2581hours": 2381,
  "\u2581humility": 2382,
  "\u2581week": 2383,
  "\u2581\u121b\u12a5\u12a8\u120d": 2384,
  "\u2581\u12b4\u1295\u1293": 2385,
  "\u2581\u12ed\u1215\u130d\u12d8\u1293": 2386,
  "\u2581quit": 2387,
  "\u2581\u1290\u12ed\u122d\u12ce": 2388,
  "\u2581\u12d3\u1295\u1240\u133b\u1275": 2389,
  "\u2581Similarly": 2390,
  "\u2581\u12a3\u1265\u1290\u1273\u1275": 2391,
  "\u2581\u12a3\u12f0\u12ed": 2392,
  "\u2581\u12a5\u1293\u1270": 2393,
  "\u2581looking": 2394,
  "\u2581\u1295\u121d\u1295\u1273\u12ed": 2395,
  "\u2581revealed": 2396,
  "\u12a5\u12da": 2397,
  "\u2581ready": 2398,
  "\u2581\u1264\u1275\u1293": 2399,
  "\u1260\u1276\u121d": 2400,
  "\u2581whatever": 2401,
  "\u2581100": 2402,
  "\u2581BIBLE": 2403,
  "\u2581added": 2404,
  "\u2581command": 2405,
  "\u2581\u121d\u12bd\u1295\u12eb\u1271": 2406,
  "\u2581\u12d3\u1208\u121d\u1208\u12bb\u12ca": 2407,
  "\u2581\u12dc\u1215\u12dd\u1295": 2408,
  "\u2581expressed": 2409,
  "\u2581fire": 2410,
  "\u2581quickly": 2411,
  "\u2581spent": 2412,
  "\u2581\u1295\u12a5\u1235\u122b\u12a4\u120b\u12cd\u12eb\u1295": 2413,
  "\u1236": 2414,
  "\u2581Gilead": 2415,
  "\u2581fruit": 2416,
  "\u2581\u1218\u12dd": 2417,
  "\u2581ahead": 2418,
  "\u2581\u1203\u1265\u1272": 2419,
  "\u2581\u121d\u1263\u120d": 2420,
  "\u2581\u12a2\u12f5": 2421,
  "\u2581\u1255\u1291\u12d5": 2422,
  "\u2581\u12a3\u12c8\u1295\u1273\u12ca": 2423,
  "\u2581\u12b0\u12ed\u1293": 2424,
  "\u2581\u1308\u1260\u122d": 2425,
  "\u2581\u1235\u12f5\u122b\u1264\u1275": 2426,
  "\u2581\u12a0\u120e": 2427,
  "\u2581\u12d3\u121a\u125d": 2428,
  "\u2581eventually": 2429,
  "\u2581lesson": 2430,
  "\u2581priests": 2431,
  "\u2581sometimes": 2432,
  "\u2581\u121d\u1215\u1228\u1275": 2433,
  "\u2581\u1265\u12c5\u1209": 2434,
  "\u2581\u12da\u12f0\u120a": 2435,
  "\u2581line": 2436,
  "\u2581\u1218\u122d\u12d3": 2437,
  "\u2581\u12cd\u1209\u12f5": 2438,
  "\u2581Clearly": 2439,
  "\u2581\u1325": 2440,
  "\u121d\u12bd\u1295\u12eb\u1275": 2441,
  "\u2581Soon": 2442,
  "\u2581approach": 2443,
  "\u2581test": 2444,
  "\u2581\u12a3\u1215\u12cb\u1275\u1295": 2445,
  "\u2581Catholic": 2446,
  "\u2581feet": 2447,
  "\u2581followed": 2448,
  "\u2581related": 2449,
  "\u2581\u1230\u121b\u12eb\u1275": 2450,
  "\u2581choice": 2451,
  "\u2581morning": 2452,
  "\u2581truths": 2453,
  "\u2581\u12a8\u1208\u12bb": 2454,
  "\u2581\u12ad\u1275\u1228\u12ad\u1265": 2455,
  "\u2581\u1315\u12d5\u12de": 2456,
  "\u2581worshippers": 2457,
  "\u2581yourselves": 2458,
  "\u2581beautiful": 2459,
  "\u2581persecution": 2460,
  "\u2581success": 2461,
  "\u2581\u1230\u1260\u12ed\u1275\u1295": 2462,
  "\u2581\u1265\u1338\u120e\u1275": 2463,
  "\u2581\u12a3\u1218\u1293": 2464,
  "\u2581\u12a3\u1266\u1293": 2465,
  "\u2581\u1308\u12db": 2466,
  "\u258122.": 2467,
  "\u2581Ruth": 2468,
  "\u2581\u1250\u1228\u1263": 2469,
  "\u2581\u12a3\u12dd\u12e8": 2470,
  "\u2581\u1315\u12f5\u12a3\u1275": 2471,
  "\u2581challenges": 2472,
  "\u2581\u121d\u12c3\u1295\u1293": 2473,
  "\u2581\u12a5\u1270\u133b\u1215\u1348": 2474,
  "\u12a0": 2475,
  "\u2581\u123d\u1215": 2476,
  "\u2581\u1265\u1213\u12f0": 2477,
  "\u2581Line": 2478,
  "\u2581About": 2479,
  "\u2581\u12f5\u12a3": 2480,
  "\u2581Really": 2481,
  "\u2581personally": 2482,
  "\u2581\u120d\u1261": 2483,
  "\u2581\u12c0\u1295": 2484,
  "\u2581\u12f5\u121d\u133a": 2485,
  "\u12a5\u1295\u130d\u120a\u12dd\u129b": 2486,
  "\u2581tribulation": 2487,
  "\u2581\u121b\u1274": 2488,
  "\u2581\u121e\u1270": 2489,
  "\u2581\u1290\u1260\u122b": 2490,
  "\u2581\u12dd\u12bd\u122a": 2491,
  "\u2581\u12f0\u1265\u12f3\u1260": 2492,
  "\u2581importance": 2493,
  "\u2581lack": 2494,
  "\u2581principle": 2495,
  "\u2581resurrected": 2496,
  "\u2581\u1218\u1235\u1310\u1315\u1272": 2497,
  "evertheless": 2498,
  "\u2581goals": 2499,
  "\u2581progress": 2500,
  "\u2581\u1258\u120d\u12d3": 2501,
  "i": 2502,
  "\u2581examine": 2503,
  "\u2581explain": 2504,
  "\u2581final": 2505,
  "\u2581included": 2506,
  "\u2581\u12ad\u122d\u1235\u1275\u1293": 2507,
  "\u2581loyalty": 2508,
  "\u2581protection": 2509,
  "\u2581wives": 2510,
  "\u2581\u1208\u12ed\u1272": 2511,
  "\u2581\u1238\u1290\u12bd": 2512,
  "\u2581\u134d\u1253\u12f0\u129b": 2513,
  "Do": 2514,
  "\u258123.": 2515,
  "\u2581devotion": 2516,
  "\u2581either": 2517,
  "\u2581steps": 2518,
  "\u2581contrast": 2519,
  "\u2581\u123d\u12f1\u123d\u1270": 2520,
  "\u2581\u1270\u1218\u1203\u122e": 2521,
  "\u2581state": 2522,
  "\u2581Rome": 2523,
  "\u2581U": 2524,
  "\u2581closer": 2525,
  "\u2581\u132d\u1295\u1240\u1275": 2526,
  "\u2581Through": 2527,
  "\u12dd\u12ee\u121d": 2528,
  "\u2581Further": 2529,
  "\u2581trying": 2530,
  "\u2581\u1265\u134d\u1255\u122a": 2531,
  "\u2581\u1270\u130d\u1233\u133d": 2532,
  "\u2581\u12b5\u120b\u1275\u1293": 2533,
  "\u2581\u1265\u1250\u133b\u120a": 2534,
  "\u2581\u12a3\u1235\u134b\u1215\u1272": 2535,
  "\u2581\u12dc\u12f5\u120a": 2536,
  "\u2581\u12dc\u1308\u122d\u121d": 2537,
  "\u258122,": 2538,
  "\u2581\u12a0": 2539,
  "\u2581\u12aa\u1260\u1203\u120d": 2540,
  "\u2581Matt": 2541,
  "\u2581\u12a5\u1270\u12cb\u1205\u1260": 2542,
  "\u2581feeling": 2543,
  "\u2581\u1265\u130d\u1261\u12a5": 2544,
  "\u2581\u12f5\u120c\u1275": 2545,
  "\u2581conditions": 2546,
  "\u2581dedicated": 2547,
  "\u2581recognize": 2548,
  "\u2581sovereignty": 2549,
  "\u2581\u1290\u1325\u1265\u1273\u1275": 2550,
  "\u2581Where": 2551,
  "\u2581sea": 2552,
  "\u2581\u1295\u121d": 2553,
  "\u12c9": 2554,
  "\u2581kings": 2555,
  "\u2581realized": 2556,
  "\u2581\u1250\u12f3\u121b\u12ed": 2557,
  "\u2581\u1265\u12dd": 2558,
  "\u2581\u1295\u1339\u1205": 2559,
  "\u2581dedication": 2560,
  "\u2581filled": 2561,
  "\u2581parent": 2562,
  "\u2581simple": 2563,
  "\u2581verse": 2564,
  "\u2581\u1215\u12ad\u121d\u1293": 2565,
  "\u2581\u1218\u121d\u1205\u122d": 2566,
  "\u2581arrangement": 2567,
  "\u2581\u1250": 2568,
  "\u2581\u12bd\u1261\u122d": 2569,
  "\u2581\u1348\u1243\u122d": 2570,
  "\u12c5": 2571,
  "\u2581aware": 2572,
  "\u2581carefully": 2573,
  "\u2581getting": 2574,
  "\u2581meant": 2575,
  "\u2581side": 2576,
  "\u2581keeping": 2577,
  "\u2581\u1264\u1270\u12ed": 2578,
  "\u2581\u12a3\u130b\u1323\u121a\u1273\u1275": 2579,
  "\u2581\u130a\u120d\u12d3\u12f5": 2580,
  "ww": 2581,
  "\u1313": 2582,
  "\u2581presence": 2583,
  "\u2581term": 2584,
  "\u2581urged": 2585,
  "\u2581\u1338\u1213\u134d\u1272": 2586,
  "\u2581missionaries": 2587,
  "\u2581shepherd": 2588,
  "\u2581\u12a5\u1295\u1270\u120b\u12ed": 2589,
  "\u2581\u12ad\u12a5\u1208\u1275": 2590,
  "\u2581Remember": 2591,
  "\u2581town": 2592,
  "\u2581SONGS": 2593,
  "\u2581\u1213\u1245\u1273\u1275": 2594,
  "\u2581\u1230\u1265\u12a3\u12ed\u1295": 2595,
  "\u2581prepared": 2596,
  "\u2581\u12a3\u1215\u12cb\u1275\u1293": 2597,
  "\u2581\u12aa\u1215\u130d\u12d8\u1293": 2598,
  "\u2581\u12c5\u120e\u121d": 2599,
  "ever": 2600,
  "\u2581fall": 2601,
  "\u2581observe": 2602,
  "\u2581\u121d\u122d\u12ab\u1265": 2603,
  "\u2581\u1265\u121d\u12c3\u1291": 2604,
  "\u2581\u12d3\u1233": 2605,
  "\u2581\u12dc\u1293": 2606,
  "We": 2607,
  "\u2581opposition": 2608,
  "\u2581pressure": 2609,
  "\u2581\u1235\u120d\u1320\u1293": 2610,
  "\u2581\u1265\u1275\u1265\u12d3\u1275": 2611,
  "\u2581\u12a3\u1260\u12ed": 2612,
  "\u2581\u12da\u125d\u1338\u1229": 2613,
  "\u133a": 2614,
  "\u2581Tower": 2615,
  "\u2581destroyed": 2616,
  "\u2581disciple": 2617,
  "\u2581political": 2618,
  "\u2581studies": 2619,
  "\u2581treat": 2620,
  "\u2581\u1264\u1276\u121d": 2621,
  "\u2581\u1295\u1255\u1211": 2622,
  "\u12ce\u1295": 2623,
  "\u2581imagine": 2624,
  "\u2581passed": 2625,
  "\u2581\u12cd\u1233\u1290\u1273\u1275": 2626,
  "us": 2627,
  "\u123b": 2628,
  "\u258124,": 2629,
  "\u2581experiences": 2630,
  "\u2581\u12ab\u1276\u120a\u12ad": 2631,
  "\u1321": 2632,
  "\u2581York": 2633,
  "\u2581involves": 2634,
  "\u2581nature": 2635,
  "\u2581pay": 2636,
  "\u2581usually": 2637,
  "\u2581\u12a3\u1213\u1275\u1295": 2638,
  "\u2581\u12a3\u12a5\u121d\u122e": 2639,
  "It": 2640,
  "\u2581Was": 2641,
  "\u2581month": 2642,
  "\u2581\u12da\u134d\u1338\u121d": 2643,
  "\u2581Pennsylvania": 2644,
  "\u2581neighbor": 2645,
  "\u2581spoken": 2646,
  "\u2581\u1265\u12a3\u1295\u133b\u1229": 2647,
  "\u2581\u12ba\u1308\u1265\u1229": 2648,
  "\u2581\u12ba\u1308\u1265\u122d": 2649,
  "\u2581\u12dd\u1213\u1238": 2650,
  "\u2581km": 2651,
  "\u2581\u12d8\u1218\u1293\u1275": 2652,
  "\u120d\u1262": 2653,
  "\u2581prepare": 2654,
  "\u2581\u1218\u120d\u12a3\u12bd": 2655,
  "\u2581\u1240\u12f0\u121d": 2656,
  "\u2581don": 2657,
  "\u2581enter": 2658,
  "\u2581\u1233\u12d5\u1264\u1295": 2659,
  "\u2581\u134a\u120d\u1332": 2660,
  "\u2581seemed": 2661,
  "\u2581\u121e\u1233": 2662,
  "\u2581\u1293\u12ed\u12da": 2663,
  "\u2581\u12dd\u1203\u1266\u121d": 2664,
  "\u2581report": 2665,
  "\u2581magazine": 2666,
  "\u2581teacher": 2667,
  "\u2581\u1218\u122d\u12a8\u1265": 2668,
  "\u2581\u1218\u1325\u1243\u12d5\u1272": 2669,
  "\u2581\u12a3\u12f3\u122b\u123d": 2670,
  "\u2581\u12ad\u1261\u122d": 2671,
  "\u2581\u12ad\u12c0\u1291": 2672,
  "\u2581Box": 2673,
  "\u2581parts": 2674,
  "\u2581rejoice": 2675,
  "\u2581War": 2676,
  "\u2581forward": 2677,
  "\u2581strive": 2678,
  "\u2581\u1260\u12c5\u122a": 2679,
  "\u2581\u12b8\u1208\u1293": 2680,
  "\u2581\u12dd\u122d\u12dd\u122d": 2681,
  "\u2581\u1270\u1250\u1263\u120d\u1290\u1275": 2682,
  "\u2581\u12a5\u1275\u1290\u1265\u122d": 2683,
  "\u1213\u12eb\u120e": 2684,
  "\u2581million": 2685,
  "\u2581pioneers": 2686,
  "\u2581sharing": 2687,
  ":...": 2688,
  "\u258121,": 2689,
  "\u2581M": 2690,
  "\u2581asking": 2691,
  "\u2581\u1218\u1235\u1270": 2692,
  "\u2581areas": 2693,
  "\u2581\u1295\u1308\u12db\u12a5": 2694,
  "\u2581affection": 2695,
  "\u2581flock": 2696,
  "\u2581prevent": 2697,
  "\u2581program": 2698,
  "\u2581\u121b": 2699,
  "\u2581\u12dd\u1208\u12d3\u1208": 2700,
  "\u2581\u12dd\u1290\u1260\u1228\u1209": 2701,
  "\u2581J": 2702,
  "\u2581\u121d\u122d\u132b": 2703,
  "\u2581\u12a6\u126d": 2704,
  "5": 2705,
  "\u2581mental": 2706,
  "\u2581\u12c8\u12ed\u1292": 2707,
  "\u2581Questions": 2708,
  "\u2581obedience": 2709,
  "\u2581\u12dd\u130d\u1260\u122d": 2710,
  "\u2581bread": 2711,
  "\u2581built": 2712,
  "\u2581fight": 2713,
  "\u2581\u1203": 2714,
  "\u2581attending": 2715,
  "\u2581discuss": 2716,
  "\u2581overseer": 2717,
  "\u2581required": 2718,
  "\u2581sun": 2719,
  "\u2581visited": 2720,
  "\u2581\u1218\u122c\u1275": 2721,
  "\u2581contact": 2722,
  "\u2581idea": 2723,
  "\u2581\u1215\u12eb\u12cd\u1290\u1275": 2724,
  "\u2581\u12a4": 2725,
  "\u2581\u1348\u1323\u122a": 2726,
  "\u2581\u12dd\u1308\u1260\u122d\u12ce": 2727,
  "\u1265\u121a\u120d\u12ee\u1293\u1275": 2728,
  "\u2581P": 2729,
  "\u2581half": 2730,
  "\u2581\u1213\u12ca": 2731,
  "\u2581\u12a3\u12cd\u122b\u1303": 2732,
  "\u2581\u12d5\u125d\u1263": 2733,
  "\u2581\u1300\u122d\u1218\u1295": 2734,
  "\u2581R": 2735,
  "\u2581almo": 2736,
  "ve": 2737,
  "\u258142": 2738,
  "\u2581Ps": 2739,
  "en": 2740,
  "\u12ad\u12ce": 2741,
  "\u2581\u120d\u1266\u121d": 2742,
  "\u2581\u121d\u12f5\u122d\u1295": 2743,
  "O": 2744,
  "\u2581surely": 2745,
  "\u2581\u120d\u1219\u12f5": 2746,
  "\u2581\u1215\u1230\u1265": 2747,
  "\u2581\u1308\u12ed\u1228": 2748,
  "\u2581Good": 2749,
  "\u2581sincere": 2750,
  "\u2581\u121d\u12f5\u120b\u12cd": 2751,
  "\u2581\u1295\u1205\u12ed\u12c8\u1275": 2752,
  "\u1325\u1295\u1273\u12ca\u1275": 2753,
  "\u2581\u1295\u12ad\u122d\u1235\u1275\u12eb\u1293\u1275": 2754,
  "\u2581\u12a3\u1308\u12f3\u1235\u1290\u1275": 2755,
  "\u2581animals": 2756,
  "\u2581convinced": 2757,
  "\u2581existence": 2758,
  "\u2581remained": 2759,
  "\u2581\u1213\u1310\u1235\u1295": 2760,
  "\u2581\u12a5\u12a9\u12eb\u1275": 2761,
  "\u2581begin": 2762,
  "\u2581calls": 2763,
  "\u2581girl": 2764,
  "\u2581\u1275\u1308\u120d\u133d": 2765,
  "\u2581\u1295\u1348\u120d\u1325": 2766,
  "\u2581\u1233\u120b": 2767,
  "\u2581\u12f0\u1234\u1275": 2768,
  "\u2581\u122d\u12a5\u12ed\u1276": 2769,
  "\u2581\u1230\u1260\u12ed\u1271": 2770,
  "\u2581\u1265\u1253\u1209": 2771,
  "\u2581\u1270\u12a3\u121d\u122b\u1275": 2772,
  "\u2581\u12a8\u12f0": 2773,
  "\u2581School": 2774,
  "\u2581spend": 2775,
  "\u2581\u1235\u1219": 2776,
  "\u1256\u121d": 2777,
  "\u134e": 2778,
  "\u2581association": 2779,
  "\u2581key": 2780,
  "\u2581\u120d\u12d1\u120d": 2781,
  "\u2581\u1295\u1218\u1295\u1348\u1233\u12ca": 2782,
  "\u1266\u121d": 2783,
  "\u258141": 2784,
  "\u2581observed": 2785,
  "\u2581\u1270\u12f0\u122a\u12b9": 2786,
  "\u2581\u12d5\u1228\u134d\u1272": 2787,
  "\u2581\"[": 2788,
  "\u2581Each": 2789,
  "\u2581ground": 2790,
  "\u2581specific": 2791,
  "\u2581\u12c8": 2792,
  "\u25811914": 2793,
  "\u2581standing": 2794,
  "\u2581\u1204\u12cb\u1295\u1295": 2795,
  "\u2581\u12dd\u1308\u1208\u133e": 2796,
  "\u258144": 2797,
  "\u2581boy": 2798,
  "\u2581chosen": 2799,
  "\u2581cope": 2800,
  "\u2581established": 2801,
  "\u2581minister": 2802,
  "\u2581publishers": 2803,
  "\u2581security": 2804,
  "\u2581\u121a\u120d\u12ee\u1295": 2805,
  "\u2581\u121b\u12d5\u12f3": 2806,
  "\u2581\u1264\u1275\u12a4\u120d": 2807,
  "\u2581\u1270\u12a3\u121b\u1295\u1290\u1275": 2808,
  "\u2581\u121d\u1275\u12a5\u121d\u121b\u1295": 2809,
  "\u2581\u12da\u1308\u1265\u1229": 2810,
  "\u2581Body": 2811,
  "\u2581attended": 2812,
  "\u2581seed": 2813,
  "\u2581\u12a3\u1295\u133b\u122d": 2814,
  "\u2581\u1300\u121a\u1229": 2815,
  "\u258165": 2816,
  "\u2581claim": 2817,
  "\u2581noted": 2818,
  "\u2581\u1275\u1265\u12d3\u1275": 2819,
  "\u2581\u12ad\u1295\u1228\u12ad\u1265": 2820,
  "\u2581\u1325\u1295\u1273\u12ca": 2821,
  "He": 2822,
  "In": 2823,
  "\u2581\u12a2": 2824,
  "\u2581groups": 2825,
  "\u2581practices": 2826,
  "\u2581\u1295\u1265\u12d9\u1213\u1275": 2827,
  "\u12b3": 2828,
  "\u2581offering": 2829,
  "\u2581third": 2830,
  "\u2581\u1215\u1209\u134d": 2831,
  "\u2581obedient": 2832,
  "\u2581picture": 2833,
  "\u2581\u12da\u1215\u130d\u12d8\u1293": 2834,
  "\u2581Teach": 2835,
  "\u2581evening": 2836,
  "\u2581negative": 2837,
  "Let": 2838,
  "\u2581compassion": 2839,
  "\u2581teachers": 2840,
  "\u2581\u121b\u122d\u12eb\u121d": 2841,
  "\u2581\u12a3\u1235\u1273\u1275": 2842,
  "\u2581\u12d3\u1218\u133b": 2843,
  "\u2581conclusion": 2844,
  "\u2581immediately": 2845,
  "\u2581response": 2846,
  "\u2581\u121d\u1201\u122b\u1275": 2847,
  "\u2581\u12c0\u12ed\u1290": 2848,
  "\u2581\u133b\u12f5\u1255": 2849,
  "\u258124.": 2850,
  "\u2581address": 2851,
  "\u2581outside": 2852,
  "\u2581relatives": 2853,
  "\u2581\u121d\u1235\u12ad\u122d\u1290\u1275": 2854,
  "\u2581Paradise": 2855,
  "\u2581declared": 2856,
  "\u2581lot": 2857,
  "\u2581\u12c8\u1348\u12eb": 2858,
  "\u2581\u12d8\u1208\u12a3\u1208\u121b\u12ca": 2859,
  "\u12a3\u1290": 2860,
  "\u1339": 2861,
  "\u2581demonstrate": 2862,
  "\u2581\u121d\u1265\u133b\u1215": 2863,
  "\u2581step": 2864,
  "\u2581\u1213\u120d\u12ee\u1275": 2865,
  "\u2581\u1248\u120e\u1234": 2866,
  "\u2581\u12dd\u12b8\u12a3\u1208": 2867,
  "\u2581\u12e8\u1208\u1295": 2868,
  "\u2581believed": 2869,
  "\u2581delight": 2870,
  "\u2581forget": 2871,
  "\u2581grateful": 2872,
  "\u2581\u1245\u12f5\u121a\u12a1": 2873,
  "\u2581\u12a3\u134d\u122a\u1243": 2874,
  "\u2581Memorial": 2875,
  "\u2581destroy": 2876,
  "\u2581guard": 2877,
  "\u2581opening": 2878,
  "\u2581sort": 2879,
  "\u2581\u12a5\u1275\u1255\u133d\u120d": 2880,
  "\u2581reveal": 2881,
  "\u1205\u12dd\u1262": 2882,
  "\u130a": 2883,
  "\u2581effective": 2884,
  "\u2581\u1270\u1320\u1252\u1219": 2885,
  "\u2581answered": 2886,
  "\u2581continues": 2887,
  "\u2581elderly": 2888,
  "\u2581limited": 2889,
  "\u2581percent": 2890,
  "\u2581relief": 2891,
  "\u2581tongue": 2892,
  "\u2581universe": 2893,
  "\u2581youth": 2894,
  "\u2581\u1213\u12f0\u1235\u1272": 2895,
  "\u2581Govern": 2896,
  "\u2581consequences": 2897,
  "\u2581emotional": 2898,
  "\u2581teaches": 2899,
  "\u2581\u121d\u1265\u122b\u1255": 2900,
  "\u2581\u12dc\u12f5\u120d\u12e8\u1293": 2901,
  "\u12d9": 2902,
  "\u2581(1)": 2903,
  "\u2581overcome": 2904,
  "\u2581\u12a3\u12d5\u1229\u12bd": 2905,
  "\u2581Awake": 2906,
  "\u2581articles": 2907,
  "\u2581discreet": 2908,
  "\u2581preached": 2909,
  "\u2581reasonable": 2910,
  "\u2581\u1218\u1232\u1215": 2911,
  "\u2581\u1295\u122d\u12a5\u1235\u12bb": 2912,
  "\u2581hour": 2913,
  "\u2581points": 2914,
  "\u2581pure": 2915,
  "\u2581\u12ed\u1308\u1265\u1229": 2916,
  "est": 2917,
  "\u1290\u1276\u121d": 2918,
  "\u2581requires": 2919,
  "\u2581\u1265\u121d\u1295\u1263\u1229": 2920,
  "\u2581\u12a8\u1276": 2921,
  "\u2581household": 2922,
  "\u2581vision": 2923,
  "\u120b\u12ca": 2924,
  "\u2581Church": 2925,
  "\u2581note": 2926,
  "\u2581suffered": 2927,
  "\u2581\u1218\u12dd\u1308\u1265": 2928,
  "\u2581\u122d\u12bd\u1230\u1275": 2929,
  "\u2581\u12aa\u1308\u1265\u122d": 2930,
  "\u2581Christianity": 2931,
  "\u2581Should": 2932,
  "\u2581territory": 2933,
  "\u2581\u1215\u1309\u1233\u1275": 2934,
  "\u1260\u122d": 2935,
  "\u2581(2)": 2936,
  "\u2581agree": 2937,
  "\u2581opened": 2938,
  "\u2581referred": 2939,
  "\u2581valuable": 2940,
  "\u2581confident": 2941,
  "\u2581listening": 2942,
  "\u2581refused": 2943,
  "\u2581\u12b0\u12ed\u1290": 2944,
  "\u2581\u130d\u1309\u12ed": 2945,
  "\u2581\u1325\u121d\u1240\u1275": 2946,
  "\u2581commanded": 2947,
  "\u2581foreign": 2948,
  "\u2581seeing": 2949,
  "\u2581sick": 2950,
  "\u2581situations": 2951,
  "\u2581understood": 2952,
  "\u122b\u1275": 2953,
  "\u2581Also": 2954,
  "\u2581concerned": 2955,
  "\u2581energy": 2956,
  "\u2581fail": 2957,
  "\u2581\u1275\u133d\u1262\u1275": 2958,
  "\u2581\u1295\u1218": 2959,
  "\u2581\u12a4\u120d\u12eb\u1235": 2960,
  "\u2581\u12a8\u1228\u1295": 2961,
  "\u2581\u12dd\u1290\u1348\u1236": 2962,
  "\u2581although": 2963,
  "\u2581friendship": 2964,
  "\u2581student": 2965,
  "\u2581\u1265\u12a1\u1295\u1265\u12a1": 2966,
  "\u2581pursue": 2967,
  "\u2581\u1275\u1215\u12dd\u1276": 2968,
  "\u2581\u12c8\u1208\u12f6": 2969,
  "\u2581Ask": 2970,
  "\u2581Philippians": 2971,
  "\u2581finally": 2972,
  "\u2581manner": 2973,
  "\u2581\u1215\u1235": 2974,
  "\u2581\u1270\u122b": 2975,
  "\u2581\u12d5": 2976,
  "\u2581IN": 2977,
  "\u2581homes": 2978,
  "\u2581\u12a4\u120d": 2979,
  "\u258148": 2980,
  "\u2581Only": 2981,
  "\u2581endurance": 2982,
  "\u2581grew": 2983,
  "\u2581\u120d\u12f0\u1275": 2984,
  "\u2581\u1275\u1295\u1262\u1273\u1275": 2985,
  "\u2581\u1293\u12ed\u1273": 2986,
  "u": 2987,
  "\u258128,": 2988,
  "\u2581Over": 2989,
  "\u2581TO": 2990,
  "\u2581lose": 2991,
  "\u2581\u1218\u1295\u130d\u1235\u1271": 2992,
  "\u2581\u1218\u1295\u1348\u1233\u12cd\u12eb\u1295": 2993,
  "\u2581\u123d\u130d\u122d": 2994,
  "\u2581\u12f2\u1293": 2995,
  "\u1273\u1275\u1295": 2996,
  "\u12cd\u12eb\u1295": 2997,
  "\u2581failed": 2998,
  "\u2581warned": 2999,
  "\u2581\u1213\u120a\u1349": 3000,
  "\u2581\u121d\u1233\u120d\u12eb\u12ca": 3001,
  "\u2581\u1248\u1228": 3002,
  "\u2581\u1313\u1233": 3003,
  "\u2581forgiveness": 3004,
  "\u2581\u121e\u1271": 3005,
  "\u2581\u12b8\u1208\u12b9": 3006,
  "\u2581\u133d\u120d\u12a2": 3007,
  "\u2581watch": 3008,
  "\u2581\u1213\u12d8\u1295": 3009,
  "\u2581\u1295\u122d\u12a5\u1235\u1293": 3010,
  "\u2581\u12a5\u1270\u1348\u1338\u1218": 3011,
  "\u2581Well": 3012,
  "\u2581produce": 3013,
  "\u2581\u1215\u130d\u1273\u1275": 3014,
  "\u2581\u1295\u1230\u12d3\u1265\u1271": 3015,
  "\u2581\u12ae": 3016,
  "\u2581\u12b0\u1291": 3017,
  "\u2581\u12d8\u12ed\u134d\u1339\u121b\u1275": 3018,
  "\u2581\u12f0\u12f5\u1215\u122a": 3019,
  "\u2581\u130d\u1260\u122d": 3020,
  "\u1230\u1295": 3021,
  "\u2581approval": 3022,
  "\u2581\u1203\u12ed\u121b\u1296\u1273\u1275": 3023,
  "\u2581\u1293\u133b": 3024,
  "\u2581\u12e8\u1320\u1253\u120d\u120d": 3025,
  "\u2581wine": 3026,
  "\u2581\u1233\u12a6\u120d": 3027,
  "\u2581\u1295\u12d3\u12bb": 3028,
  "\u2581\u12a5\u1275\u12b8\u12cd\u1295": 3029,
  "\u2581\u12c8\u1228\u12f3": 3030,
  "able": 3031,
  "\u2581danger": 3032,
  "\u2581loss": 3033,
  "\u2581\u1265\u12d8\u120b": 3034,
  "\u2581\u12da\u122d\u12a8\u1263": 3035,
  "\u2581\u1348": 3036,
  "\u2581\u134d\u120d\u12ed": 3037,
  "\u258139": 3038,
  "\u2581acceptable": 3039,
  "\u2581reward": 3040,
  "\u2581zeal": 3041,
  "\u2581\u1295\u12f0\u1246\u121d": 3042,
  "\u2581\u12dd\u1250\u1228\u1260": 3043,
  "\u1258": 3044,
  "\u2581Gospel": 3045,
  "\u2581gifts": 3046,
  "\u2581\u1238\u12cd\u12d3\u1270": 3047,
  "\u2581\u1295\u1253\u120d": 3048,
  "\u1235\u1290": 3049,
  "\u2581Africa": 3050,
  "\u2581\u1230\u1260": 3051,
  "\u2581\u12ab\u1205\u1293\u1275": 3052,
  "\u2581\u12bd\u1275\u1308\u1265\u122d": 3053,
  "\u2581\u12f0\u1246\u121d": 3054,
  "\u2581\u12aa\u1290\u1265\u1229": 3055,
  "\u125d": 3056,
  "\u1260\u1203\u120d": 3057,
  "\u2581army": 3058,
  "\u2581mouth": 3059,
  "\u2581prospect": 3060,
  "\u2581resist": 3061,
  "\u2581\u1270\u1218\u122b\u1218\u122d\u1272": 3062,
  "\u2581\u12f5\u122e": 3063,
  "Y": 3064,
  "\u2581viewed": 3065,
  "\u2581\u1218\u133a\u12a1": 3066,
  "\u2581\u121a\u12a5\u1273\u12ca\u1275": 3067,
  "This": 3068,
  "is": 3069,
  "\u2581Mount": 3070,
  "\u2581sight": 3071,
  "\u2581workers": 3072,
  "\u2581\u1215\u1309\u1235": 3073,
  "\u2581Young": 3074,
  "\u2581cases": 3075,
  "\u2581event": 3076,
  "\u2581invitation": 3077,
  "\u2581\u1295\u12b8\u12cd\u1295": 3078,
  "\u2581\u12f3\u1215\u122e\u1275": 3079,
  "\u1309": 3080,
  "\u2581circuit": 3081,
  "\u2581\u121d\u1295\u1263\u1265": 3082,
  "\u2581\u121e\u1275\u1295": 3083,
  "\u258123,": 3084,
  "\u2581active": 3085,
  "\u2581\u1265\u12a5\u121d\u1290\u1275": 3086,
  "\u2581\u12a3\u12ed\u1348\u120d\u1325\u1295": 3087,
  "\u2581\u12f5\u12ee\u121d": 3088,
  "ers": 3089,
  "\u2581fulfill": 3090,
  "\u2581late": 3091,
  "\u2581\u12da\u1205\u1265": 3092,
  ",...": 3093,
  "\u2581basic": 3094,
  "\u2581encouraging": 3095,
  "\u2581hearing": 3096,
  "\u2581refers": 3097,
  "\u2581road": 3098,
  "\u2581\u1205\u12dd\u1261": 3099,
  "\u2581\u1265\u1255\u12d3\u1275": 3100,
  "\u2581Faith": 3101,
  "\u2581Sea": 3102,
  "\u2581includes": 3103,
  "\u2581\u12a3\u12cb\u122d\u1215": 3104,
  "\u2581\u12ad\u122d\u1235\u1276\u1235\u1295": 3105,
  "\u2581\u12ad\u134b\u120d": 3106,
  "\u2581\u12ee\u1203": 3107,
  "\u2581\u1308\u12ed\u122b": 3108,
  "mong": 3109,
  "\u12a8\u121d": 3110,
  "\u2581front": 3111,
  "\u2581fruitage": 3112,
  "\u2581recent": 3113,
  "\u2581\u121d\u1233\u1273\u1276\u121d": 3114,
  "\u2581\u1265\u1275\u1215\u1275\u1293": 3115,
  "\u2581manifest": 3116,
  "\u2581save": 3117,
  "\u2581uses": 3118,
  "\u2581\u1265\u121d\u122d\u12a3\u12ed": 3119,
  "more": 3120,
  "\u1355": 3121,
  "\u2581Isaac": 3122,
  "\u2581accomplish": 3123,
  "\u2581prophecies": 3124,
  "\u2581react": 3125,
  "\u2581\u1205\u12ed\u12c8\u1275\u12ab": 3126,
  "\u2581\u1265\u1251\u12d5": 3127,
  "\u2581\u12bb\u120d\u12a3\u12ed": 3128,
  "\u2581presented": 3129,
  "\u2581\u1218\u1208\u12ae\u1273\u12ca": 3130,
  "\u12a5\u130d\u12da\u12a3\u1265\u1204\u122d": 3131,
  "\u2581Cor": 3132,
  "\u2581\u121d\u12f5\u122b\u12ca": 3133,
  "\u2581\u1270\u1218\u12dd\u130a\u1261": 3134,
  "\u2581\u12a3\u1260\u122d\u12ad\u1276": 3135,
  "\u2581\u12d8\u130b\u1320\u121e": 3136,
  "\u2581\u12dd\u1235\u121b": 3137,
  "\u2581Children": 3138,
  "\u2581assured": 3139,
  "\u2581killed": 3140,
  "\u2581\u1218\u121d\u1205\u122b\u1295": 3141,
  "\u2581\u1218\u12f0\u1228": 3142,
  "When": 3143,
  "\u258125.": 3144,
  "\u2581\u1230\u120b\u121d\u1295": 3145,
  "\u2581\u1238\u1276": 3146,
  "\u2581\u12a3\u12f3\u121d\u1295": 3147,
  "\u2581appear": 3148,
  "\u2581greatly": 3149,
  "\u2581guide": 3150,
  "\u2581praying": 3151,
  "\u1322": 3152,
  "\u2581becomes": 3153,
  "\u2581caring": 3154,
  "\u2581contribute": 3155,
  "\u2581forgive": 3156,
  "\u2581remind": 3157,
  "\u134e\u121d": 3158,
  "\u258155": 3159,
  "\u2581concerning": 3160,
  "\u2581developed": 3161,
  "\u2581\u1218\u130d\u1262": 3162,
  "\u2581\u1230\u134a\u1215": 3163,
  "\u2581\u12dd\u1203\u1260\u1293": 3164,
  "\u2581\u12f2": 3165,
  "\u2581Two": 3166,
  "\u2581lie": 3167,
  "\u2581wait": 3168,
  "\u2581\u1258\u120d\u12d1": 3169,
  "\u2581\u1265\u121d\u12a5\u1273\u12cd": 3170,
  "\u2581\u1294\u122d\u1293": 3171,
  "\u2581\u12d8\u1260\u1209": 3172,
  "\u1218\u1295\u130d\u1235\u1272": 3173,
  "\u2581overseers": 3174,
  "\u2581request": 3175,
  "\u2581warm": 3176,
  "\u2581\u1275\u122d\u1309\u121d": 3177,
  "\u2581\u12a5\u1295\u130c\u122b": 3178,
  "\u2581\u12ba\u1308\u120d\u133d": 3179,
  "\u2581\u12da\u12a3\u12ad\u120d": 3180,
  "\u2581names": 3181,
  "\u2581satisfaction": 3182,
  "\u2581spread": 3183,
  "\u2581statement": 3184,
  "\u2581\u121d\u12dd\u122b\u1265": 3185,
  "\u2581\u1348\u1208\u121d\u1272": 3186,
  "\u1275\u1293": 3187,
  "\u1295\u12f0\u12ed": 3188,
  "\u2581Colossians": 3189,
  "\u2581Translation": 3190,
  "\u2581describes": 3191,
  "\u2581room": 3192,
  "\u2581\u1229\u1275": 3193,
  "\u2581\u1293\u133d\u1290\u1275": 3194,
  "\u2581\u12a3\u12ab\u120b\u1275": 3195,
  "\u2581\u12a3\u12dd\u12eb": 3196,
  "\u2581cut": 3197,
  "\u2581instead": 3198,
  "\u2581reports": 3199,
  "\u2581translated": 3200,
  "\u2581zealous": 3201,
  "\u2581\u1295\u1213\u1295\u1272": 3202,
  "\u2581\u12c8\u1208\u12f0\u12ed": 3203,
  "\u2581\u130a\u12dc": 3204,
  "For": 3205,
  "\u2581YOU": 3206,
  "\u2581play": 3207,
  "\u2581\u1203\u1260": 3208,
  "\u2581\u12f0\u130a\u121d": 3209,
  "\u1293\u1265": 3210,
  "\u2581Brooklyn": 3211,
  "\u2581Germany": 3212,
  "\u2581evident": 3213,
  "\u2581\u12cd\u123d\u1323\u12ca": 3214,
  "2": 3215,
  "responsibilities": 3216,
  "\u2581119": 3217,
  "\u2581loves": 3218,
  "\u2581\u1295\u12a5\u130d\u12da\u12a3\u1265\u1204\u122d": 3219,
  "\u2581\u12a5\u121d\u1290\u1276\u121d": 3220,
  "\u12a5\u1276\u121d": 3221,
  "\u12e8\u1206\u12cb": 3222,
  "\u2581Ecclesiastes": 3223,
  "\u2581discussed": 3224,
  "\u2581responsible": 3225,
  "\u2581\u1218\u12f0\u121d\u12f0\u121d\u1273": 3226,
  "\u2581\u121d\u122d\u121d\u122d": 3227,
  "\u2581\u1260\u1209": 3228,
  "\u2581\u1263\u1205\u122a": 3229,
  "\u2581\u1295\u12d3\u12ed": 3230,
  "\u2581\u12a5\u1270\u1218\u122d\u12b0\u1230": 3231,
  "\u2581\u12dd\u122d\u12a8\u1261": 3232,
  "all": 3233,
  "\u2581insight": 3234,
  "\u2581riches": 3235,
  "\u2581society": 3236,
  "\u2581\u1264\u1273": 3237,
  "\u2581\u1264\u1275\u12ab": 3238,
  "\u2581\u1290\u1308\u122b\u1275\u1295": 3239,
  "\u2581\u12a3\u133d\u12cb\u122d": 3240,
  "\u2581Her": 3241,
  "\u2581business": 3242,
  "\u2581creatures": 3243,
  "\u2581easily": 3244,
  "\u2581improve": 3245,
  "\u2581patience": 3246,
  "\u2581\u1295\u121d\u1215\u130b\u12dd": 3247,
  "\u2581\u12bd\u1295\u1228\u12ad\u1265": 3248,
  "\u2581comments": 3249,
  "\u2581consideration": 3250,
  "\u2581search": 3251,
  "\u2581\u1219\u12da\u1243": 3252,
  "\u2581\u1265\u1270\u12c8\u1233\u12ba": 3253,
  "\u2581\u1295\u130d\u1206": 3254,
  "\u2581\u12a5\u1270\u1218\u120d\u12ad\u1275": 3255,
  "\u2581aspects": 3256,
  "\u2581eight": 3257,
  "\u2581issues": 3258,
  "\u2581secular": 3259,
  "\u2581\u121d\u1235\u12da": 3260,
  "\u1230\u1293\u12ed": 3261,
  "\u2581direct": 3262,
  "\u2581eye": 3263,
  "\u2581\u1218\u1230\u1293\u12f5\u12ce": 3264,
  "\u2581\u1238\u1276\u1273\u1275": 3265,
  "\u2581\u12a5\u12da\u12cd\u1295": 3266,
  "\u2581affected": 3267,
  "\u2581\u12a3\u12e8\u1320\u122b\u1325": 3268,
  "\u2581\u134d\u120d\u120d\u12ed": 3269,
  "\u2581Once": 3270,
  "\u2581WHAT": 3271,
  "\u2581chose": 3272,
  "\u2581\u1218\u12a5\u1270\u12ca": 3273,
  "\u2581\u121d\u1233\u12bb": 3274,
  "\u2581\u121d\u133d\u122b\u122d": 3275,
  "\u2581\u12ee\u122d\u12ad": 3276,
  "\u2581discussion": 3277,
  "\u2581pleasure": 3278,
  "\u2581\u1218\u12ad\u1265\u1265": 3279,
  "\u2581\u125b\u1295\u124b\u1273\u1275": 3280,
  "\u2581\u1275\u1211\u1275": 3281,
  "\u2581\u12a3\u12d8\u122b\u122d\u1263": 3282,
  "\u2581\u12a3\u1308\u120d\u1308\u120d\u1271": 3283,
  "\u2581\u12a5\u1270\u1228\u12bd\u1260": 3284,
  "\u2581\u12a5\u1290": 3285,
  "\u2581\u12b8\u121d\u1272": 3286,
  "\u2581\u12d5\u1208\u1275": 3287,
  "\u2581\u12ed\u1348\u120d\u1321": 3288,
  "\u2581looked": 3289,
  "\u2581master": 3290,
  "\u2581prophets": 3291,
  "\u2581welcome": 3292,
  "\u2581\u121d\u1235\u1263\u12bd": 3293,
  "\u2581\u1265\u1250\u12f3\u121d\u1290\u1275": 3294,
  "\u2581\u12a3\u12ab\u120b\u12ca": 3295,
  "\u2581\u1300\u1218\u1228\u1275": 3296,
  "\u2581busy": 3297,
  "\u2581\u1270\u1230\u120e\u1295\u1244": 3298,
  "\u2581\u12a3\u12ed\u1202": 3299,
  "\u2581\u12bb\u1205\u1293\u1275": 3300,
  "\u2581\u12da\u1270\u1213\u1213\u12dd": 3301,
  "\u12a8\u121d\u1272": 3302,
  "\u1305": 3303,
  "\u2581contains": 3304,
  "\u2581social": 3305,
  "\u2581values": 3306,
  "\u2581\u1228\u12b8\u1260": 3307,
  "like": 3308,
  "\u2581Being": 3309,
  "\u2581conversation": 3310,
  "\u2581\u1230\u1265\u12a3\u12eb": 3311,
  "\u2581\u12a3\u12bd\u122b\u1295": 3312,
  "\u2581Note": 3313,
  "\u2581join": 3314,
  "\u2581offspring": 3315,
  "\u2581successful": 3316,
  "\u2581\u12d3\u12c8\u1275": 3317,
  "\u2581\u12db\u1295\u1273": 3318,
  "on": 3319,
  "\u132d": 3320,
  "\u2581Deuteronomy": 3321,
  "\u2581appeared": 3322,
  "\u2581extent": 3323,
  "\u2581particular": 3324,
  "\u2581publication": 3325,
  "\u2581\u121d\u133d\u1295\u1293\u12d5": 3326,
  "\u2581\u121d\u134d\u120b\u1325": 3327,
  "\u2581\u1275\u1211\u1273\u1275": 3328,
  "\u2581\u1295\u122d\u12a5\u1231": 3329,
  "\u2581\u12a2\u12e8\u1295": 3330,
  "\u2581\u12a5\u12cb\u1293\u1275": 3331,
  "\u258143": 3332,
  "\u2581Make": 3333,
  "\u2581gods": 3334,
  "\u2581major": 3335,
  "\u2581\u1218\u12dd\u1219\u122b\u1275": 3336,
  "\u2581assist": 3337,
  "\u2581youths": 3338,
  "\u2581\u1218\u12c8\u12f3\u12a5\u1273\u12a1": 3339,
  "\u2581\u12d8\u122d\u12a5\u1235": 3340,
  "\u12f6\u121d": 3341,
  "\u2581attack": 3342,
  "\u2581subjects": 3343,
  "\u2581train": 3344,
  "\u2581\u121d\u12bd\u1295\u12eb\u1273\u1275": 3345,
  "\u2581\u1270\u12db\u1228\u1260": 3346,
  "\u2581\u12dc\u130b\u1325\u121d": 3347,
  "\u2581\u134d\u1275\u1212": 3348,
  "\u2581leading": 3349,
  "\u2581measure": 3350,
  "\u2581military": 3351,
  "\u2581\u1218\u1313\u1230": 3352,
  "\u2581\u1228\u1265\u1213": 3353,
  "\u2581\u12bb\u1265\u12da": 3354,
  "\u2581\u12d3\u12ed\u1292": 3355,
  "\u2581\u12dd\u12bd\u12a5\u1209": 3356,
  "\u2581\u12f5\u120d\u12f1\u120d": 3357,
  "\u2581\u12f5\u12e8": 3358,
  "\u2581\u1338\u1265\u133b\u1263\u1275": 3359,
  "\u2581\u1295\u121d\u12c3\u1295": 3360,
  "\u2581\u1295\u1228\u12ad\u1265": 3361,
  "\u2581\u12ed\u122d\u12a8\u1265": 3362,
  "\u2581Exodus": 3363,
  "\u2581carried": 3364,
  "\u2581enemy": 3365,
  "\u2581race": 3366,
  "\u2581writer": 3367,
  "\u2581\u12a5\u121d\u1290\u1275\u1295": 3368,
  "\u2581\u12d8\u12ed\u12b0\u12ed\u1291": 3369,
  "\u2581Family": 3370,
  "\u2581battle": 3371,
  "\u2581identify": 3372,
  "\u2581inside": 3373,
  "\u2581\u1295\u1235\u121d": 3374,
  "\u2581\u1295\u1235\u12bb\u12b8": 3375,
  "\u2581\u130d\u1265\u122b\u12ca": 3376,
  "\u120b\u1295": 3377,
  "\u2581anxiety": 3378,
  "\u2581endeavor": 3379,
  "\u2581lessons": 3380,
  "\u2581story": 3381,
  "\u2581\u1295\u121d\u134d\u133b\u121d": 3382,
  "\u2581\u12d3\u12cd": 3383,
  "\u2581\u1338\u130b": 3384,
  "\u2581Help": 3385,
  "\u2581cities": 3386,
  "\u2581type": 3387,
  "\u2581\u12ab": 3388,
  "\u12ab\u12ee": 3389,
  "\u2581careful": 3390,
  "\u2581commandments": 3391,
  "\u2581merely": 3392,
  "\u2581studied": 3393,
  "\u2581undeserved": 3394,
  "\u2581\u12a3\u121d\u1208\u12bd\u1272": 3395,
  "\u2581\u12dd\u1290\u1260\u122d\u1293": 3396,
  "\u1228\u1295": 3397,
  "\u1270\u122d": 3398,
  "\u12ed\u12ce": 3399,
  "\u2581(3)": 3400,
  "\u2581adds": 3401,
  "\u2581particularly": 3402,
  "\u2581writing": 3403,
  "\u2581\u1232": 3404,
  "\u2581\u12a3\u1263\u12ed\u1272": 3405,
  "\u2581\u1325\u1260\u1260\u129b": 3406,
  "\u2581Finally": 3407,
  "\u2581bearing": 3408,
  "\u2581break": 3409,
  "\u2581immoral": 3410,
  "\u2581verses": 3411,
  "\u2581worth": 3412,
  "\u2581\u12a5\u1270\u120b\u12d5\u1208": 3413,
  "\u2581\u12a5\u1270\u12cb\u1205\u1266": 3414,
  "\u2581\u12a5\u12eb\u1231": 3415,
  "\u2581\u12da\u1205\u1209": 3416,
  "\u2581\u12ed\u1205\u1265": 3417,
  "\u2581\u12ed\u1215\u1265\u122d": 3418,
  "\u2581\u12ed\u1265\u1209": 3419,
  "\u2581Readers": 3420,
  "\u2581daughters": 3421,
  "\u2581distress": 3422,
  "\u2581opportunities": 3423,
  "\u2581reality": 3424,
  "\u2581\u1270\u1230": 3425,
  "\u2581\u12b8\u12f0": 3426,
  "\u2581\u12c8\u12f0": 3427,
  "\u2581\u1338": 3428,
  "\u2581\u134d\u1253\u12f0\u129b\u1273\u1275": 3429,
  "\u2581OF": 3430,
  "\u2581helpful": 3431,
  "\u2581judge": 3432,
  "\u2581send": 3433,
  "\u2581\u1270\u12a3\u12a8\u1265\u1272": 3434,
  "\u2581\u12a3\u122d\u12a5\u12e9": 3435,
  "\u2581\u12a3\u1308\u120d\u130d\u120e\u1275\u1293": 3436,
  "\u2581\u12dd\u1308\u1265\u122e": 3437,
  "\u2581Sarah": 3438,
  "\u2581fill": 3439,
  "\u2581mere": 3440,
  "\u2581waiting": 3441,
  "\u2581\u1218\u12dd\u1290\u1275": 3442,
  "\u2581\u12a3\u1209\u1273\u12ca": 3443,
  "\u2581\u12a6": 3444,
  "\u2581\u12a8\u1208\u12c9": 3445,
  "\u2581\u1338\u120d\u121b\u1275": 3446,
  "\u2581disease": 3447,
  "\u2581harvest": 3448,
  "\u2581\u1243\u1209": 3449,
  "\u2581\u1295\u1213\u1242": 3450,
  "\u2581\u12cd\u1209\u12f5\u12ab": 3451,
  "\u2581\u12d5\u130d\u1260\u1275": 3452,
  "it": 3453,
  "\u1218\u122d": 3454,
  "\u1348\u122d": 3455,
  "\u2581assure": 3456,
  "\u2581patient": 3457,
  "\u2581tears": 3458,
  "\u2581\u1233\u120d\u1233\u12ed": 3459,
  "\u2581\u12a2\u12f1": 3460,
  "\u2581\u12d3\u1208\u121b\u12ca": 3461,
  "\u2581\u12d8\u12f3\u130d\u121d": 3462,
  "\u2581\u12f5\u1215\u1290\u1275": 3463,
  "There": 3464,
  "\u2581II": 3465,
  "\u2581Look": 3466,
  "\u2581aside": 3467,
  "\u2581immorality": 3468,
  "\u2581\u1265\u133e\u1271": 3469,
  "\u2581\u12a5\u1275\u1308\u1265\u122e": 3470,
  "\u129b": 3471,
  "\u2581High": 3472,
  "\u2581evidently": 3473,
  "\u2581\u12a3\u12e8\u1293\u12ed": 3474,
  "\u2581\u12ad\u1308\u1265\u122d": 3475,
  "\u2581\u12d8\u12ed\u1290\u1260\u1228": 3476,
  "\u2581communication": 3477,
  "\u2581increase": 3478,
  "\u2581ruler": 3479,
  "\u2581\u12a3\u12e8\u122d": 3480,
  "\u2581\u12b8\u121d\u12a1\u12cd\u1295": 3481,
  "What": 3482,
  "\u12a5\u1270\u1348\u120b\u1208\u12e8": 3483,
  "\u2581faithfully": 3484,
  "\u2581harm": 3485,
  "\u2581\u1265\u133e\u1275\u1293": 3486,
  "\u2581\u1275\u121d\u1292\u1275": 3487,
  "\u2581\u12e8\u12f5\u120d\u12e8\u1293": 3488,
  "\u2581Under": 3489,
  "\u2581bless": 3490,
  "\u2581car": 3491,
  "\u2581correct": 3492,
  "\u2581court": 3493,
  "\u2581\u1205\u12ed\u12c8\u1275\u1295": 3494,
  "\u2581\u1265\u134d\u1273\u12cd": 3495,
  "\u2581\u12a5\u1270\u1213\u1275\u1218\u1275": 3496,
  "\u2581\u12a5\u12da\u12b8": 3497,
  "\u2581\u12aa\u1228\u12bd\u1261": 3498,
  "\u2581\u12dc\u130b\u1325\u121e\u121d": 3499,
  "\u2581\u12f0\u1261\u1265": 3500,
  "ar": 3501,
  "\u1265\u12d9\u1215": 3502,
  "\u2581Land": 3503,
  "\u2581purposes": 3504,
  "\u2581temptation": 3505,
  "\u2581trained": 3506,
  "\u2581\u1295\u12f3\u12ca\u1275": 3507,
  "\u2581\u12da\u12b8\u12ed\u12f5": 3508,
  "\u2581Imagine": 3509,
  "\u2581de": 3510,
  "\u2581\u1295\u12c8\u12f1": 3511,
  "\u2581\u1325\u12d1\u12ed": 3512,
  "\u2581\u133b\u12cd\u12d2\u1275": 3513,
  "My": 3514,
  "\u120d\u12a9\u121d": 3515,
  "\u2581conclude": 3516,
  "\u2581placed": 3517,
  "\u2581relative": 3518,
  "\u2581unique": 3519,
  "\u2581\u1213\u1295\u1233\u12a5": 3520,
  "\u2581\u12a5\u121d\u1295\u1276": 3521,
  "\u2581\u12a5\u1295\u1235\u1233\u1273\u1275": 3522,
  "\u2581\u12c0\u12ed\u1293": 3523,
  "\u25812012": 3524,
  "\u258146": 3525,
  "\u2581Take": 3526,
  "\u2581beloved": 3527,
  "\u2581closely": 3528,
  "\u2581goes": 3529,
  "\u2581heartfelt": 3530,
  "\u2581minds": 3531,
  "\u2581responded": 3532,
  "\u2581younger": 3533,
  "\u2581\u121d\u1295\u1273\u12ed": 3534,
  "\u2581\u1265\u1213\u1310\u1235": 3535,
  "\u2581\u12ad\u1349\u12a5": 3536,
  "\u2581\u12dd\u12f0\u120a": 3537,
  "\u2581\u133d\u1212\u1349": 3538,
  "\u1236\u121d": 3539,
  "\u2581big": 3540,
  "\u2581letters": 3541,
  "\u2581\u1290\u1263\u122a": 3542,
  "\u2581\u12a8\u120e\u1293": 3543,
  "\u1265\u1242": 3544,
  "\u2581associated": 3545,
  "\u2581drink": 3546,
  "\u2581eating": 3547,
  "\u2581notice": 3548,
  "\u2581reached": 3549,
  "\u2581sleep": 3550,
  "\u2581weeks": 3551,
  "\u2581\u12bd\u1290\u1231": 3552,
  "\u2581applied": 3553,
  "\u2581deeds": 3554,
  "\u2581expressions": 3555,
  "\u2581music": 3556,
  "\u2581receiving": 3557,
  "\u2581\u121d\u1235\u130b\u1293": 3558,
  "\u2581\u12a3\u1271\u121d": 3559,
  "\u2581\u12a3\u12ed\u12aa": 3560,
  "\u2581\u12a3\u1308\u120d\u130d\u120e\u1271": 3561,
  "\u2581\u12dd\u12c8\u1338": 3562,
  "4": 3563,
  "as": 3564,
  "\u2581indicate": 3565,
  "\u2581\u12a3\u134d\u120d\u1326": 3566,
  "\u2581\u12bd\u1265\u122a": 3567,
  "\u2581\u12d8\u1208\u12bb": 3568,
  "\u2581144,000": 3569,
  "\u2581Give": 3570,
  "\u2581Study": 3571,
  "\u2581appears": 3572,
  "\u2581garden": 3573,
  "\u2581gone": 3574,
  "\u2581produced": 3575,
  "\u2581refer": 3576,
  "\u2581saved": 3577,
  "\u2581\u1230\u12d3\u1265\u1271": 3578,
  "\u2581\u1265\u1255\u1295\u12d5\u1293": 3579,
  "\u2581\u1353\u12ed\u1290\u122d": 3580,
  "\u2581\u1218\u1228\u130b\u1308\u133a": 3581,
  "\u2581\u1230\u12d3\u1273\u1275": 3582,
  "\u2581\u1235\u1255": 3583,
  "\u2581\u1265\u1213\u1348\u123b": 3584,
  "\u2581\u12a5\u1295\u1235\u1233": 3585,
  "\u2581\u12e8\u12f5\u120a": 3586,
  "\u2581\u1308": 3587,
  "\u2581\u1348\u1228\u1295\u1233": 3588,
  "\u258131.": 3589,
  "\u2581South": 3590,
  "\u2581directed": 3591,
  "\u2581\u1230\u1295\u1260\u1275": 3592,
  "\u2581\u1265\u122d\u1273\u12d0": 3593,
  "\u2581\u130d\u12dc\u12a1": 3594,
  "\u12d6\u121d": 3595,
  "\u2581Ezekiel": 3596,
  "\u2581medical": 3597,
  "\u2581\u121e\u1308\u1235": 3598,
  "\u2581\u1265\u1250\u1325\u1273": 3599,
  "\u2581\u1265\u1293\u133b": 3600,
  "\u2581\u1265\u12a3\u121d\u120b\u12bd": 3601,
  "\u2581\u12dd\u1290\u1260\u1228\u1292": 3602,
  "\u2581\u12dd\u1308\u1265\u122d": 3603,
  "\u25812011": 3604,
  "\u258129.": 3605,
  "\u2581Think": 3606,
  "\u2581behavior": 3607,
  "\u2581instruction": 3608,
  "\u2581relates": 3609,
  "\u2581thank": 3610,
  "\u2581trial": 3611,
  "\u2581\u1208": 3612,
  "\u2581\u1290\u1308\u1235\u1273\u1275": 3613,
  "\u2581\u1295\u121d\u134d\u120b\u1325": 3614,
  "\u2581\u12da\u1250\u122d\u1265": 3615,
  "\u2581\u12dd\u1290\u1265\u1229": 3616,
  "\u12a1\u1295": 3617,
  "\u2581advantage": 3618,
  "\u2581eternal": 3619,
  "\u2581impressed": 3620,
  "\u2581rejected": 3621,
  "\u2581\u1208\u12cd\u1203\u1275": 3622,
  "\u2581\u1265\u125b\u1295\u124b": 3623,
  "\u12a2": 3624,
  "\u12f0\u1295": 3625,
  "\u2581box": 3626,
  "\u2581drawn": 3627,
  "\u2581pass": 3628,
  "\u2581\u1265\u121d\u1209\u12a1": 3629,
  "\u2581\u12a5\u121d\u1290\u1275\u1293": 3630,
  "\u2581\u12a5\u1270\u1230\u122d\u1210": 3631,
  "\u2581\u133d": 3632,
  "\u2581\u133d\u1295": 3633,
  "\u2581\u133d\u1295\u12d3\u1275": 3634,
  "\u12d2": 3635,
  "\u2581Micah": 3636,
  "\u2581Regard": 3637,
  "\u2581camp": 3638,
  "\u2581hurt": 3639,
  "\u2581lies": 3640,
  "\u2581meal": 3641,
  "\u2581quoted": 3642,
  "\u2581\u1265\u1235\u121d": 3643,
  "\u2581\u12a3\u1208\u12b9": 3644,
  "\u2581\u12d8\u12f0\u1295\u1255": 3645,
  "T": 3646,
  "\u2581Pharaoh": 3647,
  "\u2581contrary": 3648,
  "\u2581fell": 3649,
  "\u2581gold": 3650,
  "\u2581troubled": 3651,
  "\u2581\u1228\u12a3\u12e8": 3652,
  "\u2581\u12a3\u1265\u12a3": 3653,
  "6": 3654,
  "\u1265\u1265\u12dd\u1212": 3655,
  "\u2581COVER": 3656,
  "\u2581Mother": 3657,
  "\u2581companions": 3658,
  "\u2581designed": 3659,
  "\u2581growing": 3660,
  "\u2581illustrate": 3661,
  "\u2581\u1218\u1230\u120b\u1275": 3662,
  "\u2581\u121b\u12d5\u1228": 3663,
  "\u2581\u1308\u120b\u1275\u12eb": 3664,
  "\u258128.": 3665,
  "\u258180": 3666,
  "\u2581Europe": 3667,
  "\u2581Explain": 3668,
  "\u2581island": 3669,
  "\u2581legal": 3670,
  "\u2581mountain": 3671,
  "\u2581sees": 3672,
  "\u2581wealth": 3673,
  "\u2581wide": 3674,
  "\u2581\u1295\u133d\u120d": 3675,
  "\u2581\u12a5\u1295\u1228\u12bd\u1266": 3676,
  "\u1212": 3677,
  "\u2581deliver": 3678,
  "\u2581demons": 3679,
  "\u2581reference": 3680,
  "\u2581\u1202\u1261": 3681,
  "\u2581\u1205\u12dd\u1263\u12ca": 3682,
  "\u2581\u121d\u1235\u1273": 3683,
  "\u2581\u121d\u12ed\u12ed\u1325": 3684,
  "\u2581\u1295\u12bb\u120d\u12a5": 3685,
  "\u2581\u133b\u12f5\u1243\u1295": 3686,
  "he": 3687,
  "\u2581essential": 3688,
  "\u2581pride": 3689,
  "\u2581succeed": 3690,
  "\u2581talking": 3691,
  "\u2581wedding": 3692,
  "\u2581\u1270\u122b\u12a5\u12e9": 3693,
  "\u2581\u1290\u1325\u1262": 3694,
  "\u2581\u12da\u12a8\u12a3\u120d": 3695,
  "\u2581Hav": 3696,
  "\u2581Israelite": 3697,
  "\u2581Spirit": 3698,
  "\u2581animal": 3699,
  "\u2581outstanding": 3700,
  "\u2581sinful": 3701,
  "\u2581thousand": 3702,
  "\u2581\u1215\u130b\u12ca": 3703,
  "\u2581\u12d8\u12ed\u12b0\u1291": 3704,
  "\u2581\u1310\u12f5": 3705,
  "\u2581\u134d\u1253\u12f1": 3706,
  "\u1265\u120d": 3707,
  "\u2581_": 3708,
  "\u2581pattern": 3709,
  "\u2581shared": 3710,
  "\u1273\u12ca": 3711,
  "\u258190": 3712,
  "\u2581aid": 3713,
  "\u2581process": 3714,
  "\u2581\u120d\u121b\u12f5": 3715,
  "\u2581\u121b\u12a5\u12a8\u120b\u12ed": 3716,
  "\u2581\u122d\u1321\u1265": 3717,
  "\u2581\u1255\u12f1\u1233\u1275": 3718,
  "g": 3719,
  "\u1273\u1271": 3720,
  "\u2581amount": 3721,
  "\u2581entered": 3722,
  "\u2581main": 3723,
  "\u2581promote": 3724,
  "\u2581secret": 3725,
  "\u2581spouse": 3726,
  "\u2581Blur": 3727,
  "\u2581speaks": 3728,
  "\u2581strengthened": 3729,
  "\u2581treatment": 3730,
  "\u2581\u120d\u1260\u12ed": 3731,
  "\u2581\u1213\u1240\u129b": 3732,
  "\u2581\u121d\u1235\u1275\u12cd\u12d3\u120d": 3733,
  "\u2581\u12dc\u12f5\u120d\u12ee": 3734,
  "\u2581\u130d\u122a\u12bd\u129b": 3735,
  "\u2581\u134d": 3736,
  "\u1235\u1270": 3737,
  "\u12da\u12a3\u1276\u121d": 3738,
  "\u2581France": 3739,
  "\u2581expected": 3740,
  "\u2581growth": 3741,
  "\u2581reported": 3742,
  "\u2581village": 3743,
  "\u2581\u1270\u1250\u121b\u1326": 3744,
  "\u2581\u12e8\u1265\u120e\u121d\u1295": 3745,
  "\u2581\u12f0\u1308": 3746,
  "\u2581authorities": 3747,
  "\u2581community": 3748,
  "\u2581date": 3749,
  "\u2581joined": 3750,
  "\u2581listed": 3751,
  "\u2581\u121d\u1233": 3752,
  "\u2581\u121d\u1255\u1263\u120d": 3753,
  "\u2581Christendom": 3754,
  "\u2581Galatians": 3755,
  "\u2581honest": 3756,
  "\u2581reveals": 3757,
  "\u2581rulership": 3758,
  "\u2581\u120d\u1265\u12bb": 3759,
  "\u2581\u12da\u1215\u1265\u122e": 3760,
  "\u2581\u12dc\u121d\u133d\u12a5": 3761,
  "\u2581\u12f0\u1213\u122d": 3762,
  "\u2581\u12f5\u122b\u12b8": 3763,
  "\u2581Nehemiah": 3764,
  "\u2581lay": 3765,
  "\u2581\u121a\u12ad\u12eb\u1235": 3766,
  "\u2581\u1263": 3767,
  "\u2581\u12d5\u120b\u121b\u12a1": 3768,
  "\u2581\u12d5\u1295\u1245\u134b\u1275": 3769,
  "\u2581\u12da\u12a3\u121d\u1291": 3770,
  "\u2581\u12dd\u12c0\u1290\u1209": 3771,
  "\u2581\u130d\u1208\u133d": 3772,
  "\u1300": 3773,
  "\u2581satisfying": 3774,
  "\u2581views": 3775,
  "\u2581\u12d8\u1338\u12a3\u1275": 3776,
  "\u2581\u1306\u1295": 3777,
  "\u00b7": 3778,
  "\u12a4": 3779,
  "\u25812000": 3780,
  "\u2581blind": 3781,
  "\u2581darkness": 3782,
  "\u2581dealings": 3783,
  "\u2581goodness": 3784,
  "\u2581lasting": 3785,
  "\u2581scriptures": 3786,
  "\u2581violent": 3787,
  "\u2581\u1275\u12ab\u120d": 3788,
  "\u12ed\u1295": 3789,
  "\u25811990": 3790,
  "\u2581Could": 3791,
  "\u2581raise": 3792,
  "\u2581\u12a5\u121d\u1292": 3793,
  "\u2581\u1308\u1260\u1229": 3794,
  "\u2581\u1338\u120b\u12a2": 3795,
  "ation": 3796,
  "\u120c": 3797,
  "\u1328": 3798,
  "\u2581husbands": 3799,
  "\u2581\u1218\u1293\u134d\u1235\u1272": 3800,
  "\u2581\u1295\u1213\u12f5\u1215\u12f5\u1293": 3801,
  "\u2581\u1295\u12d8\u120e": 3802,
  "\u2581\u133d\u1229\u12ed": 3803,
  "Look": 3804,
  "\u2581afraid": 3805,
  "\u2581indicated": 3806,
  "\u2581remains": 3807,
  "\u2581wickedness": 3808,
  "\u2581witnessing": 3809,
  "\u2581\u1205\u12eb\u1265": 3810,
  "\u2581\u1263\u122e\u1275": 3811,
  "\u2581\u12a3\u1262\u120e\u121d": 3812,
  "\u2581\u12a5\u1270\u1270\u1213\u1213\u12d8": 3813,
  "\u2581\u12ba\u1260\u1203\u120d": 3814,
  "\u2581committed": 3815,
  "\u2581decide": 3816,
  "\u2581telling": 3817,
  "\u2581\u121d\u1201\u122d": 3818,
  "\u2581\u1270\u121b\u1203\u122e": 3819,
  "\u2581\u12f0\u1241": 3820,
  "\u1218\u1295": 3821,
  "\u2581Biblical": 3822,
  "\u2581likewise": 3823,
  "\u2581performed": 3824,
  "\u2581probabl": 3825,
  "\u2581widow": 3826,
  "\u2581\u1208\u12cd\u1325\u1273\u1275": 3827,
  "\u2581\u1238\u121e\u1295\u1270": 3828,
  "\u2581\u12a5\u1270\u1263\u1205\u1208": 3829,
  "\u2581\u12c8\u120b\u12f2": 3830,
  "Mosaic": 3831,
  "\u2581Kings": 3832,
  "\u2581L": 3833,
  "\u2581Work": 3834,
  "\u2581emotions": 3835,
  "\u2581kindly": 3836,
  "\u2581occur": 3837,
  "\u2581\u1240\u12f3\u121d\u1290": 3838,
  "\u2581\u1270\u12db\u122a\u1261": 3839,
  "\u2581\u1295\u121d\u1203\u1265": 3840,
  "\u2581\u1295\u1235\u12bb\u1275\u12a9\u121d": 3841,
  "\u2581\u12a3\u122d\u12a5\u1235\u1272": 3842,
  "\u2581\u12a3\u12ed\u1275\u1228\u1235\u12d5": 3843,
  "\u2581\u12a5\u1270\u1308\u120d\u1338": 3844,
  "\u25812009": 3845,
  "\u2581applying": 3846,
  "\u2581illness": 3847,
  "\u2581sex": 3848,
  "\u2581\u1212\u12de\u121d": 3849,
  "\u2581\u12a3\u1295\u1235\u1275\u1295": 3850,
  "\u2581\u12a5\u1295\u12f3": 3851,
  "\u2581\u12a5\u1348\u120d\u1325": 3852,
  "\u2581\u133d\u1291\u12d5": 3853,
  "\u2581cares": 3854,
  "\u2581decades": 3855,
  "\u2581wish": 3856,
  "\u2581\u1218\u12d8\u1293\u130d\u12d2": 3857,
  "\u2581\u1245\u12f5\u121d": 3858,
  "\u120e\u121d\u1295": 3859,
  "\u2581constantly": 3860,
  "\u2581prophetic": 3861,
  "\u2581\u12ad\u120d\u1272\u12a6\u121d": 3862,
  "h": 3863,
  "\u12c0\u1295": 3864,
  "\u2581Tract": 3865,
  "\u2581delivered": 3866,
  "\u2581factors": 3867,
  "\u2581formed": 3868,
  "\u2581\u1265\u121d\u1213\u12dd": 3869,
  "\u2581\u1313\u1236\u1275": 3870,
  "le": 3871,
  "\u133e": 3872,
  "\u2581G": 3873,
  "\u2581dealing": 3874,
  "\u2581journey": 3875,
  "\u2581provisions": 3876,
  "\u2581setting": 3877,
  "\u2581\u121a\u12db\u1293\u12ca": 3878,
  "\u2581\u1263\u1205\u122d\u12eb\u12ca": 3879,
  "\u2581\u12a3\u1218\u1208\u12bb\u12bd\u1273": 3880,
  "\u2581\u12a5\u1295\u122d\u12a5\u12ee": 3881,
  "\u2581\u12c8\u12a8\u134d\u1293": 3882,
  "\u2581\u12dd\u121e\u1271": 3883,
  "\u2581\u12dd\u1295\u1263\u1208": 3884,
  "\u2581\u1338\u1292\u1216\u121d": 3885,
  "\u1248": 3886,
  "\u25812010": 3887,
  "\u2581Here": 3888,
  "\u2581extreme": 3889,
  "\u2581research": 3890,
  "\u2581\u12ad\u1295\u1218\u1203\u122d": 3891,
  "ted": 3892,
  "\u1295\u130d": 3893,
  "\u2581cover": 3894,
  "\u2581oil": 3895,
  "\u2581perform": 3896,
  "\u2581\u1290\u12d8\u1295": 3897,
  "\u2581\u1295\u1218\u1295": 3898,
  "\u2581\u12dc\u1308\u120d\u130d\u1209": 3899,
  "\u2581\u1325\u1260\u1265\u1295": 3900,
  "\u12d6": 3901,
  "\u2581Eden": 3902,
  "\u2581company": 3903,
  "\u2581dear": 3904,
  "\u2581gathered": 3905,
  "\u2581listened": 3906,
  "\u2581m": 3907,
  "\u2581neighbors": 3908,
  "\u2581powers": 3909,
  "\u2581\u1218\u12cb\u12a5\u120d": 3910,
  "\u2581\u12a5\u1265": 3911,
  "\u2581\u12a5\u1293\u12c8\u1230\u12b8": 3912,
  "\u2581\u12da\u121d\u1205\u122d": 3913,
  "\u2581\u12e8\u1218\u120d\u12ad\u1275": 3914,
  "\u2581survive": 3915,
  "\u2581\u1248\u120d\u12d3": 3916,
  "\u2581\u1295\u1213\u12cb\u1229": 3917,
  "\u2581\u12da\u12db\u1228\u1265": 3918,
  "\u2581\u12e8\u12f5\u120d\u12ee\u121d": 3919,
  "\u2581Jonah": 3920,
  "\u2581Likewise": 3921,
  "\u2581details": 3922,
  "\u2581injustice": 3923,
  "\u2581\u1265\u120d\u12ad\u12d5": 3924,
  "\u2581\u1295\u12dd\u12c0\u1290": 3925,
  "\u2581\u12da\u1205\u1266": 3926,
  "\u2581\u12da\u1265\u120e": 3927,
  "\u130e": 3928,
  "\u2581belief": 3929,
  "\u2581difference": 3930,
  "\u2581entertainment": 3931,
  "\u2581inhabitants": 3932,
  "\u2581willingly": 3933,
  "\u2581\u1215\u120d\u1293": 3934,
  "\u2581\u1275\u12f0\u120a": 3935,
  "\u2581\u1290\u1295\u1265\u1265": 3936,
  "\u2581\u12da\u1213\u1275\u1275": 3937,
  "\u2581\u133e\u122d": 3938,
  "\u133d\u1295": 3939,
  "\u2581beneficial": 3940,
  "\u2581engage": 3941,
  "\u2581indicates": 3942,
  "\u2581organized": 3943,
  "\u2581requirements": 3944,
  "\u2581\u1218\u1265\u133d\u12d3\u1273\u1275": 3945,
  "\u2581\u121d\u1235\u121b\u12d5": 3946,
  "\u2581ideas": 3947,
  "\u2581risk": 3948,
  "\u2581united": 3949,
  "\u2581\u12bd\u1295\u121d\u122d\u121d\u122d": 3950,
  "\u2581\u12d8\u1320\u1253\u120d\u120d": 3951,
  "\u2581\u130d\u1265": 3952,
  "\u2581\u1320": 3953,
  "\u1230\u1208\u1235\u1270": 3954,
  "\u2581connection": 3955,
  "\u2581conventions": 3956,
  "\u2581facts": 3957,
  "\u2581freely": 3958,
  "\u2581joyful": 3959,
  "\u2581recognized": 3960,
  "\u2581writings": 3961,
  "\u2581\u1205\u1295\u1338\u1275": 3962,
  "\u2581\u121a\u12eb\u12dd\u12eb": 3963,
  "\u2581\u1295\u1263\u1265": 3964,
  "\u2581dangerous": 3965,
  "\u2581due": 3966,
  "\u2581forces": 3967,
  "\u2581seriously": 3968,
  "\u2581spirituality": 3969,
  "\u2581\u1213\u12aa\u121d": 3970,
  "\u2581\u12a5\u1295\u1206": 3971,
  "Jesus": 3972,
  "\u12a5\u1273": 3973,
  "\u2581ark": 3974,
  "\u2581causes": 3975,
  "\u2581easier": 3976,
  "\u2581habits": 3977,
  "\u2581religions": 3978,
  "\u2581acted": 3979,
  "\u2581background": 3980,
  "\u2581mature": 3981,
  "\u2581meditate": 3982,
  "\u2581poverty": 3983,
  "\u2581scholars": 3984,
  "\u2581superior": 3985,
  "\u2581\u1235\u1333\u129b": 3986,
  "\u2581\u1270\u1218": 3987,
  "\u2581\u1290\u12ed\u122d\u12ce\u121d": 3988,
  "\u2581\u1295\u134b\u1235": 3989,
  "\u2581\u12a3\u121b\u120d\u12bd\u1272": 3990,
  "\u2581\u12da\u122d\u12a5\u12ee": 3991,
  "\u2581\u12dd\u1308\u1260\u122d\u1293\u12ee": 3992,
  "\u2581Both": 3993,
  "\u2581slaves": 3994,
  "\u2581sword": 3995,
  "\u2581\u1235\u121d\u1228\u1275": 3996,
  "\u2581\u1262": 3997,
  "\u2581\u1270\u1263\u1202\u120e\u121d": 3998,
  "\u2581\u1308\u12db\u12a2": 3999,
  "\u2581\u1313\u1202": 4000,
  "\u2581stopped": 4001,
  "\u2581treated": 4002,
  "\u2581\u1218\u1260\u1208\u1275": 4003,
  "\u2581\u1228\u12ba\u1266\u121d": 4004,
  "\u2581\u1265\u1325\u1295\u1243\u1250": 4005,
  "\u2581\u12a3\u120d\u12ae": 4006,
  "\u2581\u12d8\u120b\u1275\u1293": 4007,
  "\u122d\u12a0": 4008,
  "\u2581Without": 4009,
  "\u2581bond": 4010,
  "\u2581fearing": 4011,
  "\u2581financial": 4012,
  "\u2581god": 4013,
  "\u2581grasp": 4014,
  "\u2581normal": 4015,
  "\u2581path": 4016,
  "\u2581stick": 4017,
  "\u2581\u1203\u1293": 4018,
  "\u2581\u1295\u12a3\u1265\u122d\u1203\u121d": 4019,
  "\u2581\u12d8\u12ed\u12ad\u12a5\u1209": 4020,
  "\u2581\u12dc\u130b\u1325\u1218\u1293": 4021,
  "1": 4022,
  "\u1218\u1235": 4023,
  "\u2581Sad": 4024,
  "\u2581assistance": 4025,
  "\u2581leaving": 4026,
  "\u2581mountains": 4027,
  "\u2581\u1218\u1295\u130d\u1235\u1273\u1275": 4028,
  "\u2581\u1295\u133d\u1205\u1293": 4029,
  "\u2581\u12a2\u1295": 4030,
  "\u2581\u12b5\u120b\u1276\u121d": 4031,
  ">": 4032,
  "\u122c": 4033,
  "\u2581April": 4034,
  "\u2581Parents": 4035,
  "\u2581exist": 4036,
  "\u2581international": 4037,
  "\u2581occurred": 4038,
  "\u2581providing": 4039,
  "\u2581rebellion": 4040,
  "\u2581struggle": 4041,
  "\u2581\u1215\u133b\u1295": 4042,
  "\u2581\u121d\u1233\u1293": 4043,
  "\u2581\u1260\u1228\u12bb": 4044,
  "\u1260\u120d": 4045,
  "\u2581discovered": 4046,
  "\u2581\u1265\u1230\u120b\u121d": 4047,
  "\u2581\u12a3\u1265\u120e": 4048,
  "\u2581\u12a3\u1295\u1260\u1265\u1272": 4049,
  "\u2581\u12a3\u12a5\u121d\u122e\u12bb": 4050,
  "\u2581\u12bd\u1308\u1265\u122d": 4051,
  "M": 4052,
  "\u12eb\u1295": 4053,
  "\u2581determine": 4054,
  "\u2581notes": 4055,
  "\u2581resolve": 4056,
  "\u2581tender": 4057,
  "\u2581treasure": 4058,
  "\u2581\u120d\u12d5\u120d": 4059,
  "\u2581\u1290\u1308\u1235\u1275": 4060,
  "\u2581\u1295\u1218\u1300\u1218\u122d\u1273": 4061,
  "\u2581\u12a3\u12f0\u122b\u123d": 4062,
  "\u2581\u12a3\u1338\u1262": 4063,
  "\u2581\u12cd\u133d\u12a2\u1271": 4064,
  "\u2581\u12d8\u12ed\u1265\u120d\u1293": 4065,
  "\u2581\u12da\u1215\u130d\u12dd": 4066,
  "\u2581\u134d\u122d\u1202": 4067,
  "\u2581\u1356\u1208\u1272\u12ab\u12ca": 4068,
  "All": 4069,
  "\u2581German": 4070,
  "\u2581moving": 4071,
  "\u2581primary": 4072,
  "\u2581run": 4073,
  "\u2581sought": 4074,
  "\u2581touched": 4075,
  "\u2581upright": 4076,
  "\u2581\u1218\u133b\u121d\u12f5\u1275\u12bb": 4077,
  "\u2581\u121a\u1235\u12ee\u1293\u12ca": 4078,
  "\u2581\u1265\u1203\u1295\u12f0\u1260\u1275": 4079,
  "\u2581\u1265\u12da": 4080,
  "\u2581\u12a3\u12ed\u1295\u12bd\u12a5\u120d\u1295": 4081,
  "\u2581\u12d8\u1210\u1315\u1235": 4082,
  "\u2581\u12ed\u1205\u1260\u1293": 4083,
  "\u2581\u1320\u1295\u1242": 4084,
  "\u2581\u133d\u12e9\u134d": 4085,
  "\u12c8\u12f2": 4086,
  "\u12ed\u1218\u1235\u1208\u12ab": 4087,
  "\u2581concluded": 4088,
  "\u2581determination": 4089,
  "\u2581mighty": 4090,
  "\u2581privileges": 4091,
  "\u2581\u121d\u1215\u1233\u1265": 4092,
  "\u2581\u121d\u12f5\u1213\u1295": 4093,
  "\u2581\u12a3\u1295\u1235\u1275\u12ee": 4094,
  "\u2581\u12ad\u12b8\u12ed\u12f5": 4095,
  "\u2581\u12da\u122d\u12a5\u12ed\u12ce": 4096,
  "\u2581\u12dd\u1260\u1209": 4097,
  "\u126a": 4098,
  "\u2581Has": 4099,
  "\u2581Learn": 4100,
  "\u2581drinking": 4101,
  "\u2581environment": 4102,
  "\u2581\u1215\u1290": 4103,
  "\u2581\u12a3\u12cd\u1235\u1275\u122b\u120d\u12eb": 4104,
  "\u2581\u12a5\u1295\u130d\u120a\u12dd\u129b": 4105,
  "\u2581\u12dc\u1308\u120d\u130d\u120d": 4106,
  "\u258134,": 4107,
  "\u2581Armageddon": 4108,
  "\u2581appearance": 4109,
  "\u2581discern": 4110,
  "\u2581impossible": 4111,
  "\u2581non": 4112,
  "\u2581serves": 4113,
  "\u2581waters": 4114,
  "\u2581\u1205\u12dd\u1245\u12a4\u120d": 4115,
  "\u2581\u122d\u1211\u1255": 4116,
  "\u2581\u1255\u1261\u12a3\u1275": 4117,
  "\u2581\u1265\u121d\u1235\u12d3\u1265": 4118,
  "\u2581\u12a3\u121d\u120b\u12bd\u1293": 4119,
  "\u2581\u12a3\u1235\u1270\u12cd\u12d3\u120a": 4120,
  "\u2581\u12b0\u1295\u12a9": 4121,
  "\u2581Other": 4122,
  "\u2581heed": 4123,
  "\u2581leads": 4124,
  "\u2581list": 4125,
  "\u2581pleased": 4126,
  "\u2581stress": 4127,
  "\u2581\u1265\u1213\u12f5\u123d": 4128,
  "\u2581\u1295\u1265\u1228\u1275": 4129,
  "\u2581\u12a3\u1253\u120d\u1266": 4130,
  "\u2581\u12ed\u122d\u12a0": 4131,
  "\u2581Prov": 4132,
  "\u2581Recall": 4133,
  "\u2581escape": 4134,
  "\u2581separate": 4135,
  "\u2581\u1203\u1265": 4136,
  "\u2581\u1218\u122b\u1212": 4137,
  "\u2581\u124d": 4138,
  "\u2581\u12ad\u1295\u12f5": 4139,
  "\u2581\u12dd\u1218\u133d\u12a5": 4140,
  "\u2581attendance": 4141,
  "\u2581copy": 4142,
  "\u2581\u1213\u1208\u12cd\u1272": 4143,
  "\u2581\u1213\u1322\u12a3\u1275\u1295": 4144,
  "\u2581\u124b\u1295\u124b\u1273\u1275": 4145,
  "\u2581\u12a3\u1213\u1275": 4146,
  "\u02b9": 4147,
  "\u12b0": 4148,
  "\u2581Visit": 4149,
  "\u2581commission": 4150,
  "\u2581count": 4151,
  "\u2581miracles": 4152,
  "\u2581reject": 4153,
  "\u2581reminded": 4154,
  "\u2581vast": 4155,
  "\u2581\u1215\u1265\u1228\u1270\u1230\u1265": 4156,
  "\u2581\u12a2\u12f0": 4157,
  "D": 4158,
  "\u1265\u12d9\u1213\u1275": 4159,
  "\u2581ministers": 4160,
  "\u2581rights": 4161,
  "\u2581\u1218\u121d\u122d\u1212\u1273\u1275": 4162,
  "\u2581\u1231\u122d": 4163,
  "\u2581\u1275\u12dd\u12ad\u122e": 4164,
  "\u2581\u12aa\u12b8\u12ed\u12f5": 4165,
  "\u2581\u12ba\u12f3\u1295": 4166,
  "\u2581\u12dd\u1338\u1213\u134e": 4167,
  "\u1230\u1265": 4168,
  "\u12f5\u1295": 4169,
  "\u258129,": 4170,
  "\u2581September": 4171,
  "\u2581hatred": 4172,
  "\u2581kill": 4173,
  "\u2581moment": 4174,
  "\u2581\u12a5\u1275\u1308\u120d\u133d": 4175,
  "\u2581\u12ed\u1290\u1265\u122d": 4176,
  "ING": 4177,
  "\u1275\u1209": 4178,
  "\u12d3\u12ed\u1292": 4179,
  "\u2581H": 4180,
  "\u2581abuse": 4181,
  "\u2581effects": 4182,
  "\u2581feels": 4183,
  "\u2581global": 4184,
  "\u2581rendered": 4185,
  "\u2581\u1205\u12dd\u1260": 4186,
  "\u2581\u12a5\u1270\u12cb\u1205\u1266\u121d": 4187,
  "\u2581\u12aa\u1308\u120d\u133d": 4188,
  "\u2581\u12d5\u12c9\u1275": 4189,
  "\u2581\u12dd\u1300\u1218\u1228": 4190,
  "\u12c8\u122d": 4191,
  "\u2581appreciated": 4192,
  "\u2581mistakes": 4193,
  "\u2581\u1235\u1235\u12d0": 4194,
  "\u2581\u12a5\u1270\u122b\u12a5\u12e8": 4195,
  "\u2581\u12a5\u12da\u12a6\u121d": 4196,
  "\u2581\u12ad\u1295\u122d\u12a2": 4197,
  "\u2581\u12c8\u12f5\u1230\u1265": 4198,
  "\u2581\u12ed\u1255\u1228\u1273": 4199,
  "\u12ad\u1295": 4200,
  "\u258126,": 4201,
  "\u2581conflict": 4202,
  "\u2581describe": 4203,
  "\u2581hundreds": 4204,
  "\u2581\u1250\u120a\u120d": 4205,
  "\u2581\u12a3\u1255\u1228\u1260": 4206,
  "\u12a3\u123d\u1213\u1275": 4207,
  "\u2581Students": 4208,
  "\u2581Tim": 4209,
  "\u2581hair": 4210,
  "\u2581inheritance": 4211,
  "\u2581involve": 4212,
  "\u2581refuge": 4213,
  "\u2581remarkable": 4214,
  "\u2581wilderness": 4215,
  "\u2581\u1218\u1339": 4216,
  "\u2581\u121d\u1215\u130b\u12dd": 4217,
  "\u2581\u12a3\u12ed\u12b0\u1290\u1275\u1295": 4218,
  "G": 4219,
  "\u25812008": 4220,
  "\u258135.": 4221,
  "\u2581K": 4222,
  "\u2581calling": 4223,
  "\u2581surprise": 4224,
  "\u2581task": 4225,
  "\u2581\u1295\u1230\u12ed\u1323\u1295": 4226,
  "\u2581\u12dd\u125d\u1338\u1229": 4227,
  "\u2581Whe": 4228,
  "\u2581air": 4229,
  "\u2581comforting": 4230,
  "\u2581instructions": 4231,
  "\u2581mildness": 4232,
  "\u2581severe": 4233,
  "\u2581throne": 4234,
  "\u2581\u1213\u1262\u122e\u121d": 4235,
  "\u2581\u121c\u120b": 4236,
  "\u2581\u121d\u1235\u12d3\u1265": 4237,
  "\u2581\u121d\u1325\u1243\u121d": 4238,
  "\u2581\u1270\u1218\u12ad\u122e\u1273\u1275": 4239,
  "\u2581\u12a5\u1293\u12a3": 4240,
  "\u2581\u12dd\u1293\u121d": 4241,
  "\u12b5": 4242,
  "\u2581(1": 4243,
  "\u2581BE": 4244,
  "\u2581December": 4245,
  "\u2581considering": 4246,
  "\u2581forms": 4247,
  "\u2581\u121d\u1235\u120a": 4248,
  "\u2581\u121d\u12bb\u12f5": 4249,
  "\u2581\u121e\u12eb": 4250,
  "\u2581\u1235\u121d\u12d2\u1273\u1275": 4251,
  "\u2581\u12d8\u12ed\u12a8\u12a3\u120d": 4252,
  "\u2581\u1310\u12f3\u12a2": 4253,
  "\u2581\u1323\u12a6\u1275": 4254,
  "\u2581\u1356\u120a\u1235": 4255,
  "\u12e8\u1295": 4256,
  "\u2581abundance": 4257,
  "\u2581granted": 4258,
  "\u2581persons": 4259,
  "\u2581shepherds": 4260,
  "\u2581trees": 4261,
  "\u2581white": 4262,
  "\u2581yes": 4263,
  "\u2581\u1260\u12ed\u1291": 4264,
  "\u2581\u1265\u1213\u1308\u12dd": 4265,
  "\u2581\u12d8\u1208\u12c8\u1295": 4266,
  "\u2581\u12d8\u12ed\u1265\u120b": 4267,
  "\u2581\u12dd\u122d\u12a0": 4268,
  "\u2581\u1348\u120b\u121a": 4269,
  "\u1273\u1276\u121d": 4270,
  "\u12bb\u1295": 4271,
  "\u2581alcohol": 4272,
  "\u2581occasions": 4273,
  "\u2581\u1203\u1266\u121d": 4274,
  "\u2581\u1213\u122d\u1290\u1275": 4275,
  "\u2581\u1218\u1235\u12a8\u1228\u121d": 4276,
  "\u2581\u1229\u1235\u12eb": 4277,
  "\u2581\u12c8\u1208\u12f6\u121d": 4278,
  "\u2581\u12de\u1263": 4279,
  "\u2581\u12f5\u12bd\u1290\u1275": 4280,
  "N": 4281,
  "\u120d\u1295": 4282,
  "\u12ea": 4283,
  "\u134d\u122d": 4284,
  "\u2581construction": 4285,
  "\u2581obtain": 4286,
  "\u2581popular": 4287,
  "\u2581\u1203\u1266": 4288,
  "\u2581\u1290\u12ed\u1228\u1295": 4289,
  "\u2581\u12a3\u12a5\u121d\u122e\u1293": 4290,
  "\u2581\u12a3\u12bd\u1262\u1229": 4291,
  "\u2581\u12a8\u12ed\u1270": 4292,
  "\u2581\u12bd\u1295\u12a8\u12cd\u1295": 4293,
  "\u1260\u1209": 4294,
  "\u2581across": 4295,
  "\u2581carrying": 4296,
  "\u2581directly": 4297,
  "\u2581grown": 4298,
  "\u2581silver": 4299,
  "\u2581trouble": 4300,
  "\u2581walked": 4301,
  "\u2581\u1213\u12f0\u130b\u1273\u1275": 4302,
  "\u2581\u1218\u1253\u1265\u122d": 4303,
  "\u2581\u1260\u1303\u12bb": 4304,
  "\u2581\u1275\u12a5\u12db\u12db\u1275": 4305,
  "\u2581\u1295\u1308\u1265\u122d": 4306,
  "\u2581\u12da\u1228\u12bd\u1261": 4307,
  "\u2581\u12da\u1235\u121d\u12d6\u121d": 4308,
  "\u2581\u12dd\u1308\u1260\u1229": 4309,
  "\u2581Earth": 4310,
  "\u2581Hannah": 4311,
  "\u2581Un": 4312,
  "\u2581assembly": 4313,
  "\u2581buy": 4314,
  "\u2581grief": 4315,
  "\u2581lying": 4316,
  "\u2581\u1265\u1255\u12d3\u1273\u1275": 4317,
  "\u2581\u1265\u12dd\u12c0\u1290": 4318,
  "\u2581\u1353\u12ed\u1290\u122b\u1275": 4319,
  "\u1215\u1321\u1265": 4320,
  "\u1265\u12db\u12d5\u1263": 4321,
  "\u12b5\u1209": 4322,
  "\u2581Heb": 4323,
  "\u2581Second": 4324,
  "\u2581Time": 4325,
  "\u2581deaf": 4326,
  "\u2581declare": 4327,
  "\u2581healthy": 4328,
  "\u2581pointed": 4329,
  "\u2581\u12a8\u1290\u122d\u12a2": 4330,
  "\u2581\u12da\u1205\u1260\u1293": 4331,
  "at": 4332,
  "\u1202": 4333,
  "\u2581October": 4334,
  "\u2581accomplished": 4335,
  "\u2581handle": 4336,
  "\u2581rise": 4337,
  "\u2581stone": 4338,
  "\u2581\u122d\u130d\u133d": 4339,
  "\u2581\u1235\u121b\u1275": 4340,
  "\u2581\u1235\u134d\u122b": 4341,
  "\u2581\u1240\u1245\u12f5\u121a": 4342,
  "\u2581\u1265\u1325\u1260\u1265": 4343,
  "\u2581\u12a3\u1262\u120d\u1293": 4344,
  "\u2581\u12b5\u120b": 4345,
  "\u2581Know": 4346,
  "\u2581belong": 4347,
  "\u2581eager": 4348,
  "\u2581entitled": 4349,
  "\u2581released": 4350,
  "\u2581secure": 4351,
  "\u2581\u1273\u1215\u1233\u1235": 4352,
  "\u2581\u1295\u1219\u1234": 4353,
  "\u2581\u12a3\u12da": 4354,
  "\u2581\u12bd\u1349\u12a5": 4355,
  "\u2581balanced": 4356,
  "\u2581ended": 4357,
  "\u2581fish": 4358,
  "\u2581sit": 4359,
  "\u2581unable": 4360,
  "\u2581\u121d\u134d\u133b\u121d": 4361,
  "\u2581\u1290\u1308\u122e": 4362,
  "\u2581\u1295\u12b8\u1270": 4363,
  "\u2581\u12a3\u12ed\u12ad\u12a5\u1209\u1295": 4364,
  "\u2581\u12aa\u1215\u130d\u12d8\u12ab": 4365,
  "\u2581\u12b8\u120b": 4366,
  "\u2581\u12d8\u1255\u1228\u1266": 4367,
  "\u2581\u1325\u1245\u121d\u1272": 4368,
  "\u1275\u1295\u1262\u1275": 4369,
  "\u2581Spanish": 4370,
  "\u2581compared": 4371,
  "\u2581cry": 4372,
  "\u2581indefinite": 4373,
  "\u2581provision": 4374,
  "\u2581weak": 4375,
  "\u2581\u1230\u121c\u1293\u12ca": 4376,
  "\u2581\u12a3\u122d\u121b\u130c\u12f6\u1295": 4377,
  "\u2581\u12da\u12db\u1228\u1261": 4378,
  "\u2581\u12dd\u12c0\u1293": 4379,
  "3": 4380,
  "\u2581Pentecost": 4381,
  "\u2581adultery": 4382,
  "\u2581exists": 4383,
  "\u2581highly": 4384,
  "\u2581keeps": 4385,
  "\u2581numerous": 4386,
  "\u2581significant": 4387,
  "\u2581\u1205\u12dd\u1265\u1273\u1275": 4388,
  "\u2581\u1228\u1265\u1213\u1273\u1275": 4389,
  "\u2581\u1264\u1271\u1295": 4390,
  "\u2581\u12a5\u12da\u12a0\u1295": 4391,
  "\u2581\u12da\u12d3\u12ea": 4392,
  "\u2581\u12da\u134d\u1208\u1325": 4393,
  "18": 4394,
  "ion": 4395,
  "\u2581'?": 4396,
  "\u258133.": 4397,
  "\u2581Never": 4398,
  "\u2581Rom": 4399,
  "\u2581anxious": 4400,
  "\u2581aspect": 4401,
  "\u2581differ": 4402,
  "\u2581ruin": 4403,
  "\u2581\u123d\u130b\u122b": 4404,
  "\u2581\u12ed\u1265\u1208\u1293": 4405,
  "ED": 4406,
  "\u2581Elisha": 4407,
  "\u2581Pharisees": 4408,
  "\u2581critical": 4409,
  "\u2581heavy": 4410,
  "\u2581p": 4411,
  "\u2581replied": 4412,
  "\u2581\u1213\u130a\u12d9\u1292": 4413,
  "\u2581\u121d\u1233\u12ed": 4414,
  "\u2581\u1264\u1273\u1275": 4415,
  "\u2581\u12a5\u1270\u12db\u1228\u1260": 4416,
  "\u2581\u12d8\u122d\u12a3\u12e8": 4417,
  "\u2581\u12dc\u1320\u122b\u1325\u122d": 4418,
  "\u2581\u12dd\u1308\u1265\u122d\u12ce": 4419,
  "\u124d": 4420,
  "\u12cb\u1295": 4421,
  "\u1348\u1275": 4422,
  "\u2581Book": 4423,
  "\u2581Gospels": 4424,
  "\u2581Testament": 4425,
  "\u2581apart": 4426,
  "\u2581challenging": 4427,
  "\u2581concerns": 4428,
  "\u2581economic": 4429,
  "\u2581motivated": 4430,
  "\u2581soldiers": 4431,
  "\u2581\u12a3\u1235": 4432,
  "\u2581\u1320\u1263\u12ed": 4433,
  "\u258126.": 4434,
  "\u258127.": 4435,
  "\u2581Promised": 4436,
  "\u2581chief": 4437,
  "\u2581divorce": 4438,
  "\u2581recently": 4439,
  "\u2581stake": 4440,
  "\u2581\u1218\u133b\u121d\u12f5\u1272": 4441,
  "\u2581\u1228\u125b\u1212\u1273\u1275": 4442,
  "\u2581\u12a5\u1295\u1228\u12ad\u1265": 4443,
  "\u2581\u12da\u1265\u120b": 4444,
  "\u2581\u12ed\u12a3\u121d\u1291": 4445,
  "ty": 4446,
  "\u121d\u1233\u120d\u12eb\u12ca": 4447,
  "\u12bd\u120d\u1270": 4448,
  "\u2581Sometimes": 4449,
  "\u2581apparently": 4450,
  "\u2581approached": 4451,
  "\u2581chapters": 4452,
  "\u2581inhabited": 4453,
  "\u2581\u1218\u1235\u122d\u1215": 4454,
  "\u2581\u1308\u1339": 4455,
  "\u2581\u130b\u12dc\u1323": 4456,
  "\u2581\u1338\u1213\u134a": 4457,
  "\u2581\u1348\u1323\u122a\u1293": 4458,
  "\u12a3\u1295": 4459,
  "\u2581Name": 4460,
  "\u2581ill": 4461,
  "\u2581inner": 4462,
  "\u2581\u121d\u121d\u122b\u133d": 4463,
  "\u2581\u1265\u1235\u130b": 4464,
  "\u2581\u1265\u133d\u1261\u1255": 4465,
  "\u2581\u12a5\u12bd\u12a5\u120d": 4466,
  "Keep": 4467,
  "\u2581selfish": 4468,
  "\u2581straight": 4469,
  "\u2581travel": 4470,
  "\u2581\u1265\u12e8\u1206\u12cb": 4471,
  "\u2581\u12b4\u1295\u12ab": 4472,
  "\u2581\u12c8\u1213\u12f0": 4473,
  "\u2581\u12d5\u120b\u121b\u1295": 4474,
  "\u2581\u12dc\u1270\u1263\u1265\u12d5": 4475,
  "\u2581\u12dd\u1215\u1265\u122d": 4476,
  "\u2581\u12f5\u1215\u1295\u1290\u1275": 4477,
  "\u2581\u1310\u12ed\u1273\u1293": 4478,
  "\u2581baby": 4479,
  "\u2581copies": 4480,
  "\u2581peaceful": 4481,
  "\u2581\u121d\u1275\u1265\u1263\u12d5": 4482,
  "\u2581\u12d8\u1208\u12b9": 4483,
  "\u2581\u1348\u120b\u121a\u1275": 4484,
  "\u121d\u1265\u12db": 4485,
  "\u1270\u12a3\u121d\u122b\u12ca": 4486,
  "\u2581Day": 4487,
  "\u2581Every": 4488,
  "\u2581Him": 4489,
  "\u2581Man": 4490,
  "\u2581Mexico": 4491,
  "\u2581career": 4492,
  "\u2581corrupt": 4493,
  "\u2581gratitude": 4494,
  "\u2581\u121d\u134d\u120b\u1325\u1293": 4495,
  "\u2581\u1265\u1265\u12d9\u1215": 4496,
  "\u2581\u1265\u1270\u12c8\u1233\u12ba\u12cd\u1295": 4497,
  "\u2581\u1295\u121d\u130d\u120b\u133d": 4498,
  "\u2581\u12a3\u12cd\u122e\u1333": 4499,
  "\u2581\u12c8\u1232\u12f1": 4500,
  "\u2581\u12dc\u1265\u1209": 4501,
  "\u2581\u1308\u1260\u1295": 4502,
  "H": 4503,
  "\u1271\u1295": 4504,
  "\u258125,": 4505,
  "\u2581Lot": 4506,
  "\u2581\u1290\u1205\u121d\u12eb": 4507,
  "\u2581\u1295\u12b8\u1290": 4508,
  "\u2581\u12a3\u1233\u120d\u1326": 4509,
  "\u2581\u12a3\u12ed\u134b\u1209\u1295": 4510,
  "\u2581\u1320\u1252\u1231": 4511,
  "\u2581\u133d\u1211\u134b\u1275\u1295": 4512,
  "no": 4513,
  "\u2581Flood": 4514,
  "\u2581Messianic": 4515,
  "\u2581faithfulness": 4516,
  "\u2581familiar": 4517,
  "\u2581firmly": 4518,
  "\u2581hate": 4519,
  "\u2581marry": 4520,
  "\u2581proof": 4521,
  "\u2581\u1213\u1208\u1253": 4522,
  "\u2581\u121a": 4523,
  "\u2581\u1265\u1255\u120d\u1321\u134d": 4524,
  "\u2581\u1290\u1308\u122e\u121d": 4525,
  "\u2581\u12d8\u122d\u12a3\u12ee": 4526,
  "\u2581\u12dd\u1218\u1235\u120d": 4527,
  "\u2581\u12dd\u121e\u1270": 4528,
  "\u2581\u1348\u122d\u12a6\u1295": 4529,
  "0,000": 4530,
  "\u25812013": 4531,
  "\u2581July": 4532,
  "\u2581exert": 4533,
  "\u2581physically": 4534,
  "\u2581rely": 4535,
  "\u2581supported": 4536,
  "\u2581traveled": 4537,
  "\u2581\u1213\u1262\u1229": 4538,
  "\u2581\u1240\u1235": 4539,
  "\u2581\u1248\u122b\u133d\u1290\u1275": 4540,
  "\u2581\u12a5\u1270\u1308\u1265\u1228\u1209": 4541,
  "\u2581\u12d3\u12e8\u12ed\u1272": 4542,
  "\u2581\u12f5\u12bb\u1273\u1275": 4543,
  "\u2581\u1334\u1325": 4544,
  "\u1252": 4545,
  "\u1308\u1265": 4546,
  "\u25817]": 4547,
  "\u2581Thessalonians": 4548,
  "\u2581cost": 4549,
  "\u2581create": 4550,
  "\u2581exactly": 4551,
  "\u2581focused": 4552,
  "\u2581higher": 4553,
  "\u2581increased": 4554,
  "\u2581influenced": 4555,
  "\u2581region": 4556,
  "\u2581writes": 4557,
  "\u2581\u1228\u12ba\u1261": 4558,
  "\u2581\u1265\u1275\u12d5\u130d\u1235\u1272": 4559,
  "\u2581\u1270\u1213\u1312\u1236\u121d": 4560,
  "\u2581\u12c8\u122d\u1242": 4561,
  "\u2581\u12dc\u121d\u133d\u12a6": 4562,
  "ri": 4563,
  "\u25811950": 4564,
  "\u2581center": 4565,
  "\u2581herself": 4566,
  "\u2581qualified": 4567,
  "\u2581re": 4568,
  "\u2581stood": 4569,
  "\u2581\u1235\u12f0\u1270\u129b\u1273\u1275": 4570,
  "\u2581\u1250\u133a\u1209": 4571,
  "\u2581\u1295\u1290\u1265\u122d": 4572,
  "\u2581\u1295\u1308\u1208": 4573,
  "\u2581\u12a3\u1235\u1270\u1265\u1205\u120d": 4574,
  "\u2581\u1308\u120a\u133d\u12ce": 4575,
  "\u2581\u130c\u130b\u1273\u1275": 4576,
  "\u2581\u1315\u12f5\u1208\u1275": 4577,
  "\u2581Sovereign": 4578,
  "\u2581Zechariah": 4579,
  "\u2581allows": 4580,
  "\u2581magazines": 4581,
  "\u2581sang": 4582,
  "\u2581\u1238": 4583,
  "\u2581\u1270\u12d3": 4584,
  "\u2581\u1275\u12d5\u130d\u1235\u1272": 4585,
  "\u2581\u1295\u1213\u1233\u1265": 4586,
  "\u2581\u1295\u12d3\u1208\u121d": 4587,
  "\u2581\u12d5\u123d\u1290\u1275": 4588,
  "\u2581\u1325\u122a": 4589,
  "9": 4590,
  "\u2581Esther": 4591,
  "\u2581meaningful": 4592,
  "\u2581rulers": 4593,
  "\u2581visiting": 4594,
  "\u2581\u1202\u1261\u1293": 4595,
  "\u2581\u1213\u1325\u12a3\u1295": 4596,
  "\u2581\u1265\u12dd\u1212": 4597,
  "\u2581\u1295\u12f0\u120a": 4598,
  "\u2581\u1333\u12cd\u120e\u1235\u1295": 4599,
  "\u1290\u1271": 4600,
  "\u12a5\u1219\u1295": 4601,
  "\u2581Australia": 4602,
  "\u2581Its": 4603,
  "\u2581dwell": 4604,
  "\u2581motivate": 4605,
  "\u2581ruling": 4606,
  "\u2581worshipers": 4607,
  "\u2581\u1265\u1255\u1295\u12a3\u1275": 4608,
  "\u2581\u12a3\u12ed\u1290\u1260\u122e\u1295": 4609,
  "\u2581\u12da\u1260\u120d\u133d": 4610,
  "\u2581\u12dd\u12c0\u1295\u1293": 4611,
  "\u2581\u1322\u121e": 4612,
  "\u25812001": 4613,
  "\u2581August": 4614,
  "\u2581figurative": 4615,
  "\u2581finding": 4616,
  "\u2581season": 4617,
  "\u2581sinned": 4618,
  "\u2581thereafter": 4619,
  "\u2581\u1203\u1265\u1273\u121d": 4620,
  "\u2581\u1218\u12cd\u1235\u1266": 4621,
  "\u2581\u122d\u12a5\u1230\u12ed": 4622,
  "\u2581\u1250\u12f3\u1218\u12ed\u1272": 4623,
  "\u2581\u12c8\u1270\u1203\u12f0\u122b\u1275": 4624,
  "\u12e8\u1209": 4625,
  "\u2581Answer": 4626,
  "\u2581demonstrated": 4627,
  "\u2581nine": 4628,
  "\u2581reaction": 4629,
  "\u2581wind": 4630,
  "\u2581writers": 4631,
  "\u2581\u1202\u1265\u12ce\u121d": 4632,
  "\u2581\u1213\u121d\u1208": 4633,
  "\u2581\u1235\u12a5\u120d\u1273\u1275": 4634,
  "\u2581\u1275\u12cd\u12ad\u120d\u1272": 4635,
  "\u2581\u12a3\u122d\u12a3\u12e8": 4636,
  "\u126b": 4637,
  "\u1294": 4638,
  "\u133d\u122d": 4639,
  "\u258123]": 4640,
  "\u2581rain": 4641,
  "\u2581represent": 4642,
  "\u2581terms": 4643,
  "\u2581\u120d\u121d\u12f5\u1273\u1275": 4644,
  "\u2581\u1213\u120b\u134d\u1290\u1273\u1275": 4645,
  "\u2581\u1213\u12cd\u1293": 4646,
  "\u2581\u1218\u120d\u12a5\u12bd\u1271": 4647,
  "\u2581\u1265\u12d8": 4648,
  "\u2581\u12d8\u1218\u1293\u12ca": 4649,
  "\u2581\u12d8\u1308\u122d\u121d": 4650,
  "\u2581\u12dd\u1290\u1265\u122d": 4651,
  "\u2581\u12f5\u12eb": 4652,
  "f": 4653,
  "\u1290\u12ed": 4654,
  "\u2581Enoch": 4655,
  "\u2581Halls": 4656,
  "\u2581Surely": 4657,
  "\u2581culture": 4658,
  "\u2581nearby": 4659,
  "\u2581none": 4660,
  "\u2581official": 4661,
  "\u2581scholar": 4662,
  "\u2581\u121d\u121d\u120d\u120b\u1235": 4663,
  "\u2581\u121e\u12ed\u1271": 4664,
  "\u2581\u1260\u133d\u1210": 4665,
  "\u2581\u12a4\u12f5\u1295": 4666,
  "\u2581\u12a8\u1270\u121b\u1273\u1275": 4667,
  "\u2581\u12ed\u1290\u130d\u1228\u1293": 4668,
  "\u2581\u12f0\u120d\u12e9": 4669,
  "\u2581modest": 4670,
  "\u2581\u12a5\u1295\u1308\u1265\u122d": 4671,
  "\u2581\u12aa\u1265\u120d": 4672,
  "\u2581\u12b5\u1208\u1295": 4673,
  "\u2581\u12f5\u1243\u1235": 4674,
  "15": 4675,
  "out": 4676,
  "\u2581Jonathan": 4677,
  "\u2581altar": 4678,
  "\u2581couples": 4679,
  "\u2581police": 4680,
  "\u2581reaching": 4681,
  "\u2581resulted": 4682,
  "\u2581\u1213\u123d\u123d": 4683,
  "\u2581\u1218\u1255\u133b\u12d5\u1272": 4684,
  "\u2581\u121b\u1215\u1260\u122b\u12ca": 4685,
  "\u2581\u121d\u121d\u1203\u122d": 4686,
  "\u2581\u1233\u122b": 4687,
  "\u2581\u1270\u12d3\u12db\u1262": 4688,
  "\u2581\u12d8\u1218\u120d\u12ad\u1275": 4689,
  "\u2581\u12d8\u12f5\u120a": 4690,
  "\u2581\u130d\u1295\u1266\u1275": 4691,
  "\u2581\u1338\u120b\u12a5\u1272": 4692,
  "How": 4693,
  "\u121b\u1295": 4694,
  "\u2581Naomi": 4695,
  "\u2581arise": 4696,
  "\u2581national": 4697,
  "\u2581noticed": 4698,
  "\u2581represented": 4699,
  "\u2581slow": 4700,
  "\u2581successfully": 4701,
  "\u2581\u1213\u1270\u1270": 4702,
  "\u2581\u1213\u130b\u12da": 4703,
  "\u2581\u1235\u1315\u121d\u1275\u1273\u1275": 4704,
  "\u2581\u1270\u1213": 4705,
  "\u2581\u1295\u12ad\u122d\u1235\u1276\u1235": 4706,
  "\u2581\u12da\u1325\u1240\u1218\u1209": 4707,
  "\u2581\u12e8\u1308\u120d\u130d\u120d": 4708,
  "\u2581\u1348\u1208\u1320": 4709,
  "\u120d\u12eb": 4710,
  "\u1218\u12d3\u120d\u1272": 4711,
  "\u126d": 4712,
  "\u1325\u1295": 4713,
  "\u2581abandoned": 4714,
  "\u2581agreed": 4715,
  "\u2581discouraged": 4716,
  "\u2581invisible": 4717,
  "\u2581marvelous": 4718,
  "\u2581offers": 4719,
  "\u2581relationships": 4720,
  "\u2581remaining": 4721,
  "\u2581remove": 4722,
  "\u2581turning": 4723,
  "\u2581worse": 4724,
  "\u2581\u121d\u12ad\u134b\u120d": 4725,
  "\u2581\u1295\u12d5\u12ee": 4726,
  "\u2581\u12a5\u1295\u1270\u120e": 4727,
  "\u2581\u12dd\u12f0\u120d\u12e9": 4728,
  "\u2581\u133b\u12d5\u122d\u1273\u1275": 4729,
  "\u2581\u133d\u1213\u134d": 4730,
  "\u2581\u134d\u120d\u1320\u1275\u1295": 4731,
  "\u1208\u1209": 4732,
  "\u258130.": 4733,
  "\u2581History": 4734,
  "\u2581January": 4735,
  "\u2581Spain": 4736,
  "\u2581abundant": 4737,
  "\u2581happens": 4738,
  "\u2581literal": 4739,
  "\u2581require": 4740,
  "\u2581wars": 4741,
  "\u2581witnesses": 4742,
  "\u2581\u1218\u130b\u1262\u1275": 4743,
  "\u2581\u121b\u1215\u1260\u1228\u1230\u1265": 4744,
  "\u2581\u121d\u1218\u1208\u1235\u12ab": 4745,
  "\u2581\u1230\u1290": 4746,
  "\u2581\u1265\u122e\u1239\u122d": 4747,
  "\u2581\u12a8\u12e8": 4748,
  "\u2581\u12ae\u121a\u1270": 4749,
  "\u2581\u12d3\u1255\u120a": 4750,
  "\u2581\u12da\u1218\u122d\u1215": 4751,
  "\u2581\u12dd\u1228\u12a3\u1293\u12ee": 4752,
  "\u2581\u134d\u1255\u1229": 4753,
  "be": 4754,
  "\u2581American": 4755,
  "\u2581assurance": 4756,
  "\u2581dwelling": 4757,
  "\u2581governments": 4758,
  "\u2581reasoning": 4759,
  "\u2581reflected": 4760,
  "\u2581\u122d\u12b9\u1235": 4761,
  "\u2581\u1295\u120d\u12d5\u120a": 4762,
  "\u2581\u12ed\u12f0\u120a": 4763,
  "\u2581\u12f0\u12a3\u1235": 4764,
  "\u2581March": 4765,
  "\u2581assignments": 4766,
  "\u2581capital": 4767,
  "\u2581lifestyle": 4768,
  "\u2581pioneering": 4769,
  "\u2581viewpoint": 4770,
  "\u2581wondered": 4771,
  "\u2581\u1265\u1203\u1295\u1240\u12cd\u1273": 4772,
  "\u2581\u1265\u12f0\u1228\u1303": 4773,
  "\u2581\u1308\u12ed\u122d\u12ab": 4774,
  "\u2581\u1353": 4775,
  "19": 4776,
  "\u12f0\u122d": 4777,
  "\u134d\u1255\u122a": 4778,
  "\u258127,": 4779,
  "\u2581Almighty": 4780,
  "\u2581Upon": 4781,
  "\u2581Version": 4782,
  "\u2581additional": 4783,
  "\u2581fast": 4784,
  "\u2581paragraph": 4785,
  "\u2581render": 4786,
  "\u2581\u1218\u1235\u12cb\u12a5\u1275\u1273\u1275": 4787,
  "\u2581\u121b\u12a5\u1208": 4788,
  "\u2581\u1228\u12ba\u1260": 4789,
  "\u2581\u12ad\u1295\u12f5\u12a1\u1235": 4790,
  "\u2581\u12ed\u12b8\u12ed\u12f5": 4791,
  "\u1215\u1295": 4792,
  "\u1256": 4793,
  "\u2581200": 4794,
  "\u2581Draw": 4795,
  "\u2581arranged": 4796,
  "\u2581persecuted": 4797,
  "\u2581worthy": 4798,
  "\u2581\u1206\u1235\u1352\u1273\u120d": 4799,
  "\u2581\u1209\u1243": 4800,
  "\u2581\u1213\u1270\u1276": 4801,
  "\u2581\u121b\u122d": 4802,
  "\u2581\u122e\u121b\u12cd\u12eb\u1295": 4803,
  "\u2581\u1295\u1218\u122d\u121d\u122d": 4804,
  "\u2581\u12a3\u120e\u1292": 4805,
  "\u2581\u12a5\u1270\u1228\u130b\u1308\u1338": 4806,
  "\u2581\u12a5\u1270\u1230\u121d\u12d6": 4807,
  "\u2581\u12ab\u1293\u12f3": 4808,
  "\u2581\u12bb\u1265\u1270\u1295": 4809,
  "\u2581\u12da\u1265\u1209": 4810,
  "will": 4811,
  "\u2581Asia": 4812,
  "\u2581THIS": 4813,
  "\u2581churches": 4814,
  "\u2581excellent": 4815,
  "\u2581gradually": 4816,
  "\u2581\u1213\u120b\u12ca": 4817,
  "\u2581\u1218\u133d\u1214\u1273\u1275": 4818,
  "\u2581\u1260\u120b": 4819,
  "\u2581\u1265\u12f5\u1215\u122a\u12a1": 4820,
  "\u2581\u12a5\u1270\u1213\u1275\u1218": 4821,
  "\u2581\u12da\u1348\u120d\u1325": 4822,
  "\u2581\u12ed\u1235\u121d\u12d6\u121d": 4823,
  "\u2581\u12f0\u1228\u1275": 4824,
  "\u2581\u1308\u1260\u122e": 4825,
  "\u258115]": 4826,
  "\u2581Go": 4827,
  "\u2581Pet": 4828,
  "\u2581audience": 4829,
  "\u2581courageous": 4830,
  "\u2581proud": 4831,
  "\u2581sad": 4832,
  "\u2581safe": 4833,
  "\u2581standard": 4834,
  "\u2581\u1260\u1265\u125d\u1229\u1265": 4835,
  "\u2581\u1295\u121d\u130d\u120d\u130b\u120d": 4836,
  "\u2581\u12a3\u121d\u120b\u12bd\u12ab": 4837,
  "\u2581\u12d8\u1265\u120d": 4838,
  "\u2581\u12da\u1230\u121b\u121b\u12d5": 4839,
  "\u1263\u122d": 4840,
  "\u1275\u1292": 4841,
  "\u2581Hezekiah": 4842,
  "\u2581Ministry": 4843,
  "\u2581begotten": 4844,
  "\u2581compare": 4845,
  "\u2581humbly": 4846,
  "\u2581referring": 4847,
  "\u2581relations": 4848,
  "\u2581\u1265\u1213\u1295\u1233\u12a5": 4849,
  "\u2581\u12a3\u122d": 4850,
  "\u2581\u12c8\u1228\u1250\u1275": 4851,
  "\u2581\u12f0\u1234\u1273\u1275": 4852,
  "\u2581\u12f5\u120d\u12f5\u120d": 4853,
  "\u2581\u132d\u134d\u122b": 4854,
  "\u134d\u122d\u1242": 4855,
  "\u2581Doing": 4856,
  "\u2581Table": 4857,
  "\u2581deliverance": 4858,
  "\u2581dignity": 4859,
  "\u2581mention": 4860,
  "\u2581release": 4861,
  "\u2581rules": 4862,
  "\u2581strengthening": 4863,
  "\u2581variety": 4864,
  "\u2581\u120b": 4865,
  "\u2581\u123d": 4866,
  "\u2581\u1263\u122d\u1290\u1275": 4867,
  "\u2581\u1273": 4868,
  "\u2581\u1290\u1265\u12eb\u1275": 4869,
  "\u2581\u1295\u12f0\u1245\u12bb": 4870,
  "\u2581\u12a3\u1262\u120b": 4871,
  "\u2581\u12c8\u1228": 4872,
  "\u2581\u12ed\u133d\u12d5\u1229": 4873,
  "\u2581\u12f0\u121d\u1260": 4874,
  "\u2581\u1325\u121c\u1275": 4875,
  "\u2581\u1348\u1270\u1290": 4876,
  "ver": 4877,
  "\u122d\u1215": 4878,
  "\u2581Chronicles": 4879,
  "\u2581brochure": 4880,
  "\u2581content": 4881,
  "\u2581difficulties": 4882,
  "\u2581houses": 4883,
  "\u2581ought": 4884,
  "\u2581paid": 4885,
  "\u2581tribe": 4886,
  "\u2581\u1205\u1295\u133b": 4887,
  "\u2581\u120d\u121d\u12f2": 4888,
  "\u2581\u121a\u12a5\u1272": 4889,
  "\u2581\u1290\u1213\u1230": 4890,
  "\u2581\u12bb\u1265\u12a1": 4891,
  "P": 4892,
  "\u12d3\u1275": 4893,
  "\u258110]": 4894,
  "\u25811999": 4895,
  "\u2581Eventually": 4896,
  "\u2581associate": 4897,
  "\u2581depression": 4898,
  "\u2581dream": 4899,
  "\u2581total": 4900,
  "\u2581\u121d\u130d\u1263\u122d\u1295": 4901,
  "\u2581\u1228": 4902,
  "\u2581\u1295\u1348\u1208\u121b": 4903,
  "\u2581\u12ba\u1265\u120d": 4904,
  "\u2581\u12bd\u1275\u1228\u12ad\u1265": 4905,
  "\u2581\u12dd\u1228\u12b8\u1260": 4906,
  "\u2581\u12ed\u1228\u12bd\u1261": 4907,
  "They": 4908,
  "but": 4909,
  "\u2581Close": 4910,
  "\u2581arrangements": 4911,
  "\u2581bodies": 4912,
  "\u2581stars": 4913,
  "\u2581translations": 4914,
  "\u2581\u12a3\u1228\u130b\u12cd\u12eb\u1295": 4915,
  "\u2581\u12a3\u12ed\u134b\u120d\u1295": 4916,
  "\u2581\u12a5\u1295\u12f0\u120a": 4917,
  "\u2581\u12a5\u12bd\u120a": 4918,
  "\u1215\u130a": 4919,
  "\u2581Show": 4920,
  "\u2581Worship": 4921,
  "\u2581descendants": 4922,
  "\u2581doctor": 4923,
  "\u2581glorious": 4924,
  "\u2581identified": 4925,
  "\u2581\u1265\u12a3": 4926,
  "\u2581\u1295\u12bd\u1295\u12a8\u12cd\u1295": 4927,
  "\u2581\u12a3\u123d\u1213\u1275": 4928,
  "\u2581\u12a3\u1270\u12c8": 4929,
  "\u2581\u12ba\u1215\u130d\u12d8\u1293": 4930,
  "\u2581\u12da\u1218\u1233\u1230\u120d": 4931,
  "act": 4932,
  "k": 4933,
  "\u1213\u1275": 4934,
  "\u1264": 4935,
  "\u2581Aaron": 4936,
  "\u2581Baal": 4937,
  "\u2581Latin": 4938,
  "\u2581Me": 4939,
  "\u2581admonition": 4940,
  "\u2581beauty": 4941,
  "\u2581pursuing": 4942,
  "\u2581speaker": 4943,
  "\u2581surprised": 4944,
  "\u2581\u121e": 4945,
  "\u2581\u1245\u1291\u12d3\u1275": 4946,
  "\u2581\u12ae\u134d": 4947,
  "\u2581\u12d3\u1218\u133d": 4948,
  "\u2581\u12dd\u1228\u12b8\u1266": 4949,
  "As": 4950,
  "ch": 4951,
  "ful": 4952,
  "\u1235\u1275": 4953,
  "\u2581HOW": 4954,
  "\u2581district": 4955,
  "\u2581methods": 4956,
  "\u2581otherwise": 4957,
  "\u2581recall": 4958,
  "\u2581root": 4959,
  "\u2581tax": 4960,
  "\u2581\u12a3\u122b\u12ca\u1275": 4961,
  "\u2581\u12b8\u1208\u12bb": 4962,
  "\u2581\u1348\u1270\u12cd\u1272": 4963,
  "\u12ac\u130b\u1325\u1218\u1293": 4964,
  "\u12de": 4965,
  "\u2581City": 4966,
  "\u2581Passover": 4967,
  "\u2581brotherhood": 4968,
  "\u2581east": 4969,
  "\u2581fleshly": 4970,
  "\u2581fornication": 4971,
  "\u2581generation": 4972,
  "\u2581pagan": 4973,
  "\u2581series": 4974,
  "\u2581shed": 4975,
  "\u2581trip": 4976,
  "\u2581\u121d\u1215\u120b\u12cd": 4977,
  "\u2581\u1230\u1228\u1270": 4978,
  "\u2581\u1275\u1295\u1262\u1273\u12ca": 4979,
  "\u2581\u12a3\u12cb\u120d\u12f5": 4980,
  "\u2581\u12dd\u121d\u120d\u12a8\u1275": 4981,
  "\u2581\u12ed\u1235\u1203\u1245": 4982,
  "\u2581\u1309\u1263\u12a4\u1295": 4983,
  "30": 4984,
  "type": 4985,
  "\u1213\u12f5": 4986,
  "\u12a5\u1273\u1275": 4987,
  "\u1353": 4988,
  "\u258110;": 4989,
  "\u2581advance": 4990,
  "\u2581causing": 4991,
  "\u2581conviction": 4992,
  "\u2581lowly": 4993,
  "\u2581potential": 4994,
  "\u2581punishment": 4995,
  "\u2581sake": 4996,
  "\u2581\u121d\u12d5\u122b\u1265": 4997,
  "\u2581\u12a5\u1292": 4998,
  "\u2581\u12da\u133d\u12d5\u1229": 4999,
  "\u2581\u130d\u12f4\u1273": 5000,
  "\u121b\u1275": 5001,
  "\u12f0\u120d": 5002,
  "\u2581Contents": 5003,
  "\u2581Notice": 5004,
  "\u2581Re": 5005,
  "\u2581Shortly": 5006,
  "\u2581abilities": 5007,
  "\u2581armies": 5008,
  "\u2581asks": 5009,
  "\u2581choices": 5010,
  "\u2581commit": 5011,
  "\u2581exercising": 5012,
  "\u2581listeners": 5013,
  "\u2581majority": 5014,
  "\u2581ministeri": 5015,
  "\u2581recalls": 5016,
  "\u2581repentant": 5017,
  "\u2581\u1213\u1218\u12f5": 5018,
  "\u2581\u1270\u1218\u120d\u1230": 5019,
  "\u2581\u1270\u1250\u12ea\u1229": 5020,
  "\u2581\u12a3\u12bd\u1262\u122d": 5021,
  "\u2581\u12ba\u122d\u12a0": 5022,
  "\u2581\u12da\u130d\u1265\u12a6": 5023,
  "\u2581\u1338\u1208\u12e8": 5024,
  "8": 5025,
  "\u1308\u120d": 5026,
  "\u258126]": 5027,
  "\u258172": 5028,
  "\u25819]": 5029,
  "\u2581acknowledge": 5030,
  "\u2581angry": 5031,
  "\u2581displayed": 5032,
  "\u2581hundred": 5033,
  "\u2581model": 5034,
  "\u2581possessions": 5035,
  "\u2581sickness": 5036,
  "\u2581sinners": 5037,
  "\u2581supply": 5038,
  "\u2581\u121d\u1235\u120b": 5039,
  "\u2581\u1228\u12b8\u1265\u12a9": 5040,
  "\u2581\u1233": 5041,
  "\u2581\u12a5\u1270\u12cb\u1205\u1260\u1293": 5042,
  "\u2581\u12c0\u1295\u1293": 5043,
  "\u2581\u12dd\u1218\u120d\u12a3": 5044,
  "\u2581\u1309\u1263\u12a4\u1293": 5045,
  "\u121d\u12ce": 5046,
  "\u1293\u1275": 5047,
  "\u2581300": 5048,
  "\u258151": 5049,
  "\u2581England": 5050,
  "\u2581Lazarus": 5051,
  "\u2581Scripture": 5052,
  "\u2581customs": 5053,
  "\u2581images": 5054,
  "\u2581opposers": 5055,
  "\u2581outcome": 5056,
  "\u2581struck": 5057,
  "\u2581\u1210": 5058,
  "\u2581\u1232\u12a6\u120d": 5059,
  "\u2581\u1255\u1275\u1208\u1275": 5060,
  "\u2581\u1295\u121d\u12f5\u1213\u1295": 5061,
  "\u2581\u12a3\u130b": 5062,
  "\u2581\u12a3\u130b\u12ed\u123d": 5063,
  "\u2581\u12a5\u1295\u1290\u1265\u122d": 5064,
  "\u2581\u12f0\u1245\u1293": 5065,
  "\u2581\u12f5\u122b\u122d": 5066,
  "R": 5067,
  "for": 5068,
  "\u1230\u121d": 5069,
  "\u1260\u1295": 5070,
  "\u2581French": 5071,
  "\u2581companion": 5072,
  "\u2581invite": 5073,
  "\u2581lovingly": 5074,
  "\u2581parable": 5075,
  "\u2581preced": 5076,
  "\u2581properly": 5077,
  "\u2581quick": 5078,
  "\u2581readily": 5079,
  "\u2581refuse": 5080,
  "\u2581union": 5081,
  "\u2581visits": 5082,
  "\u2581\u1270\u12b8": 5083,
  "\u2581\u1270\u12d8\u122d\u12da\u1229": 5084,
  "\u2581\u1295\u1251\u1213\u1275": 5085,
  "\u2581\u12ba\u1228\u12bd\u1261": 5086,
  "\u2581\u12c8\u1232\u12b9": 5087,
  "\u2581\u12dc\u1270\u12a3\u121b\u121d\u1295": 5088,
  "\u2581\u12dd\u1258\u1218": 5089,
  "\u2581\u1303\u1353\u1295": 5090,
  "great": 5091,
  "\u121d\u1295\u121d": 5092,
  "\u1243\u120d": 5093,
  "\u1265\u122d": 5094,
  "\u12c8\u12ed": 5095,
  "\u2581acting": 5096,
  "\u2581glad": 5097,
  "\u2581limitations": 5098,
  "\u2581\u1203\u1338\u12eb\u12ca": 5099,
  "\u2581\u1230\u121c\u1295": 5100,
  "\u2581\u1265\u12f5\u1206\u1273\u1275": 5101,
  "\u2581\u12c0\u1290\u1275": 5102,
  "\u2581\u12c8\u1208\u12f1": 5103,
  "\u2581\u12c8\u1230\u1295": 5104,
  "\u2581\u1355\u122e\u134c\u1230\u122d": 5105,
  "ive": 5106,
  "\u1228\u12ed": 5107,
  "\u122d\u1293": 5108,
  "\u122d\u12eb": 5109,
  "\u12a3\u12ed": 5110,
  "\u25814;": 5111,
  "\u2581balance": 5112,
  "\u2581corruption": 5113,
  "\u2581mild": 5114,
  "\u2581moves": 5115,
  "\u2581skills": 5116,
  "\u2581\u1218\u1233\u134d\u1295\u1272": 5117,
  "\u2581\u1218\u133a\u12a6\u121d": 5118,
  "\u2581\u121b\u1215\u12f0\u122d": 5119,
  "\u2581\u121d\u12f0\u1208\u12bb": 5120,
  "\u2581\u1265\u121d\u130d\u120b\u133d": 5121,
  "\u2581\u1265\u122a\u1323\u1295\u12eb": 5122,
  "\u2581\u12a3\u12f2\u12a1": 5123,
  "\u2581\u12d3\u120c\u1275": 5124,
  "\u2581\u12d3\u1255\u121a": 5125,
  "\u2581\u12da\u12c8\u133d\u12a5": 5126,
  "\u2581\u12dd\u122d\u12a8\u1263": 5127,
  "\u2581\u12dd\u12b8\u12ed\u12f5": 5128,
  "\u2581Canada": 5129,
  "\u2581forced": 5130,
  "\u2581holding": 5131,
  "\u2581plans": 5132,
  "\u2581wild": 5133,
  "\u2581\u1265\u1253\u120d": 5134,
  "\u2581\u12a3\u12f5\u120d\u12ce": 5135,
  "\u2581\u12a5\u1231\u122b\u1275": 5136,
  "\u2581\u12c8\u12ed\u1295\u1295": 5137,
  "\u2581\u12c8\u1338": 5138,
  "ll": 5139,
  "\u258147": 5140,
  "\u258153": 5141,
  "\u2581Malachi": 5142,
  "\u2581Welcome": 5143,
  "\u2581brief": 5144,
  "\u2581completed": 5145,
  "\u2581male": 5146,
  "\u2581store": 5147,
  "\u2581\u1218\u1295\u1260\u122a": 5148,
  "\u2581\u122d\u1275\u12d3\u12ca": 5149,
  "\u2581\u1265\u1218": 5150,
  "\u2581\u1265\u12f5\u1206": 5151,
  "\u2581\u1295\u1265\u12d3\u1275": 5152,
  "\u2581\u1295\u12b8\u12ed\u1295": 5153,
  "\u2581\u12bd\u1275\u1348\u120d\u1325": 5154,
  "\u2581\u12dd\u1228\u12a3\u12ee": 5155,
  "\u2581\u12dd\u1228\u12b8\u1265\u12ce": 5156,
  "\u2581\u133d\u1295\u12a9\u122d": 5157,
  "\u1270\u122d\u1312\u121b": 5158,
  "\u1290\u1295": 5159,
  "\u12ad\u1235": 5160,
  "\u130d\u1235": 5161,
  "\u2581Tr": 5162,
  "\u2581encourages": 5163,
  "\u2581midst": 5164,
  "\u2581temporary": 5165,
  "\u2581\u1218\u1308\u12f1": 5166,
  "\u2581\u1295\u1218\u1295\u12a5\u1230\u12eb\u1275": 5167,
  "\u2581\u1295\u12b8\u121d\u12da": 5168,
  "\u2581\u12a3\u12ed\u12ad": 5169,
  "\u2581\u12ed\u1218\u1235\u120d": 5170,
  "\u2581\u130d\u12f5": 5171,
  "\u2581\u1325\u122a\u1275": 5172,
  "\u2581\u1348\u133a\u121e\u121d": 5173,
  "ur": 5174,
  "\u121b\u122d": 5175,
  "\u122d\u12f5": 5176,
  "\u1326": 5177,
  "\u2581Rev": 5178,
  "\u2581covered": 5179,
  "\u2581facing": 5180,
  "\u2581guided": 5181,
  "\u2581involving": 5182,
  "\u2581repentance": 5183,
  "\u2581royal": 5184,
  "\u2581\u1203\u1265\u1273\u121b\u1275": 5185,
  "\u2581\u1218\u12d3\u1275": 5186,
  "\u2581\u122b\u12a5": 5187,
  "\u2581\u1265\u133e\u1276\u121d": 5188,
  "\u2581\u1275\u122d\u1315\u121b\u1275": 5189,
  "\u2581\u1290\u12e8\u1293\u12ed": 5190,
  "\u2581\u12a5\u1275\u12f0\u120a": 5191,
  "\u2581\u12a5\u1295\u130d\u120a\u12dd": 5192,
  "\u2581\u12cd\u133d\u12a2\u1273\u12ca": 5193,
  "\u2581\u12e8\u121d\u133d\u12a5": 5194,
  "\u1208\u1293": 5195,
  "\u1235\u1272": 5196,
  "\u2581Following": 5197,
  "\u2581awake": 5198,
  "\u2581belongs": 5199,
  "\u2581conducted": 5200,
  "\u2581printed": 5201,
  "\u2581routine": 5202,
  "\u2581wall": 5203,
  "\u2581\u1218\u1235\u12cb\u12a5\u1273\u12ca": 5204,
  "\u2581\u1295\u12bd\u1295\u1308\u1265\u122d": 5205,
  "\u2581\u1295\u130d\u12f2": 5206,
  "\u2581\u12a5\u121d\u1290\u1271": 5207,
  "\u2581\u12d8\u12ed\u1348\u120d\u1325": 5208,
  "\u2581\u12dd\u130d\u1263\u12a5": 5209,
  "\u2581\u12dd\u1348\u1338\u121e": 5210,
  "\u2581\u12ee\u1293\u1235": 5211,
  "\u2581Am": 5212,
  "\u2581Amos": 5213,
  "\u2581June": 5214,
  "\u2581Truth": 5215,
  "\u2581private": 5216,
  "\u2581\u1218\u122a\u1215\u1290\u1275": 5217,
  "\u2581\u1253\u1209": 5218,
  "\u2581\u12aa\u1218\u133d\u12a5": 5219,
  "\u2581\u12ab\u1265\u1270\u1295": 5220,
  "\u2581\u12ba\u1205\u120d\u12ce": 5221,
  "\u2581\u12da\u1308\u120d\u133e": 5222,
  "\u2581\u12dc\u1228\u130b\u130d\u133d": 5223,
  "\u2581\u1308\u1208\u1338\u1275": 5224,
  "\u12a6\u121d\u1295": 5225,
  "\u1320\u1295": 5226,
  "\u25811919": 5227,
  "\u258149": 5228,
  "\u2581forgiving": 5229,
  "\u2581illustrations": 5230,
  "\u2581low": 5231,
  "\u2581possession": 5232,
  "\u2581restored": 5233,
  "\u2581song": 5234,
  "\u2581victory": 5235,
  "\u2581\u1215\u133b\u1293\u1275": 5236,
  "\u2581\u1295\u1333\u12cd\u120e\u1235": 5237,
  "\u2581\u12a3\u1235\u12a3\u1230\u122d": 5238,
  "\u2581\u12a9\u1295": 5239,
  "\u2581\u12b8\u12ed\u12b0\u1290": 5240,
  "\u2581\u12ed\u12d3\u12ea": 5241,
  "\u2581\u12ed\u12f0\u120d\u12e9": 5242,
  "\u1215\u1302": 5243,
  "\u1263\u1275": 5244,
  "\u2581JEHOVAH": 5245,
  "\u2581affairs": 5246,
  "\u2581broke": 5247,
  "\u2581cold": 5248,
  "\u2581crime": 5249,
  "\u2581merciful": 5250,
  "\u2581repeatedly": 5251,
  "\u2581rightly": 5252,
  "\u2581sacrificing": 5253,
  "\u2581scene": 5254,
  "\u2581texts": 5255,
  "\u2581\u1218\u1230\u12cd\u12a2": 5256,
  "\u2581\u122d\u12a5\u1233": 5257,
  "\u2581\u1265\u1275\u130d\u1203\u1275": 5258,
  "\u2581\u1270\u1230\u121b\u121a\u12d5\u1293": 5259,
  "\u2581\u1295\u12f0\u1245\u1230\u1265": 5260,
  "\u2581\u12a3\u1235\u134b\u1215\u134a\u1211": 5261,
  "\u2581\u12ba\u1228\u12ad\u1265": 5262,
  "\u2581\u12dd\u12a3\u1270\u12ce": 5263,
  "\u12d5\u1295": 5264,
  "\u12e8\u1293\u12ed": 5265,
  "\u2581Cain": 5266,
  "\u2581benefited": 5267,
  "\u2581hospital": 5268,
  "\u2581played": 5269,
  "\u2581reign": 5270,
  "\u2581resources": 5271,
  "\u2581souls": 5272,
  "\u2581sustain": 5273,
  "\u2581top": 5274,
  "\u2581\u1218\u1260\u1248\u120d": 5275,
  "\u2581\u1265\u1215\u12eb\u12cd\u1290\u1275": 5276,
  "\u2581\u12a5\u1275\u1308\u1265\u122d": 5277,
  "\u2581\u12d3\u1218\u1273\u12ca": 5278,
  "\u2581\u1300\u1218\u122d\u1293": 5279,
  "\u123a": 5280,
  "\u12da\u130d\u1263\u12a5": 5281,
  "\u1302": 5282,
  "\u2581500": 5283,
  "\u2581Ephesus": 5284,
  "\u2581FOR": 5285,
  "\u2581Out": 5286,
  "\u2581Service": 5287,
  "\u2581historian": 5288,
  "\u2581instructed": 5289,
  "\u2581load": 5290,
  "\u2581motives": 5291,
  "\u2581reminders": 5292,
  "\u2581trusted": 5293,
  "\u2581ungodly": 5294,
  "\u2581\u121d\u12a5\u12ab\u1265": 5295,
  "\u2581\u121d\u12cd\u1233\u12f5": 5296,
  "\u2581\u1235\u12a5\u1208": 5297,
  "\u2581\u1265\u1215\u1272": 5298,
  "\u2581\u12a3\u120d\u12a3\u12db\u122d": 5299,
  "\u2581\u12ba\u1205\u120d\u12c8\u1293": 5300,
  "\u2581\u12cd\u1325\u1228\u1275": 5301,
  "\u2581\u12e9\u1292\u1268\u122d\u1235": 5302,
  "\u2581\u1315\u1305\u1208\u1273\u1275": 5303,
  "\u1325\u1240\u1235": 5304,
  "\u2581bound": 5305,
  "\u2581employment": 5306,
  "\u2581identity": 5307,
  "\u2581layer": 5308,
  "\u2581scripture": 5309,
  "\u2581\u12a4\u120d\u1233\u12a5": 5310,
  "\u2581\u12bd\u1295\u122d\u12a5\u12ee": 5311,
  "\u2581\u12bd\u12a5\u1208\u1275": 5312,
  "\u2581\u12c8\u1295\u130c\u120b\u1275": 5313,
  "\u2581\u12dd\u1338\u1295\u1210": 5314,
  "\u2581\u134d\u1339\u121b\u1275": 5315,
  "\u121d\u122d": 5316,
  "\u2581Christmas": 5317,
  "\u2581State": 5318,
  "\u2581context": 5319,
  "\u2581error": 5320,
  "\u2581fundamental": 5321,
  "\u2581harmful": 5322,
  "\u2581healing": 5323,
  "\u2581satisfied": 5324,
  "\u2581signs": 5325,
  "\u2581\u121d\u1213\u12dd": 5326,
  "\u2581\u1230\u1260\u12ed\u1270\u12ed": 5327,
  "\u2581\u1270\u1218\u1295": 5328,
  "\u2581\u1275\u12d5\u1262\u1275": 5329,
  "\u2581\u1295\u1213\u12f5\u1215\u12f5\u12a9\u121d": 5330,
  "\u2581\u1295\u12a3\u121d\u120d\u12be": 5331,
  "\u2581\u1295\u12a5\u1270": 5332,
  "\u2581\u1295\u12aa\u12b8\u12cd\u1295": 5333,
  "\u2581\u12a5\u1235\u12eb": 5334,
  "\u2581\u12a5\u1295\u12b8\u12cd\u1295": 5335,
  "\u2581\u12b8\u1290\u122d\u12a2": 5336,
  "\u2581\u12ed\u1213\u1275\u1275": 5337,
  "\u2581STUD": 5338,
  "\u2581ears": 5339,
  "\u2581pleasing": 5340,
  "\u2581possess": 5341,
  "\u2581solution": 5342,
  "\u2581\u1213\u1260\u1228": 5343,
  "\u2581\u1218\u1232\u1205": 5344,
  "\u2581\u1270\u1290\u1265\u12e9": 5345,
  "\u2581\u1290\u1260\u1228\u1292": 5346,
  "\u2581\u12d8\u130b\u1320\u121e\u121d": 5347,
  "\u2581\u12ed\u1290\u1265\u1229": 5348,
  "\u2581\u12f0\u12ed\u12b0\u1290\u1295": 5349,
  "\u1260\u1208": 5350,
  "\u1276\u1295": 5351,
  "\u12dd\u1295": 5352,
  "\u2581Habakkuk": 5353,
  "\u2581communicate": 5354,
  "\u2581dress": 5355,
  "\u2581evolution": 5356,
  "\u2581inclined": 5357,
  "\u2581miraculous": 5358,
  "\u2581observes": 5359,
  "\u2581traits": 5360,
  "\u2581und": 5361,
  "\u2581useful": 5362,
  "\u2581\u1230\u121b\u12eb\u12ca\u1275": 5363,
  "\u2581\u12a2\u1295\u1233\u12ed\u12ad\u120e\u1354\u12f5\u12eb": 5364,
  "\u2581\u12aa\u1205\u1209": 5365,
  "\u2581\u12b0\u1290\u1275": 5366,
  "\u2581\u12b8\u1308\u120d\u130d\u120d": 5367,
  "te": 5368,
  "with": 5369,
  "\u25812002": 5370,
  "\u258132.": 5371,
  "\u2581accepting": 5372,
  "\u2581degree": 5373,
  "\u2581failure": 5374,
  "\u2581innocent": 5375,
  "\u2581science": 5376,
  "\u2581site": 5377,
  "\u2581tribes": 5378,
  "\u2581\u12a2\u1323\u120d\u12eb": 5379,
  "\u2581\u12a3\u12d2\u1295\u1272": 5380,
  "\u2581\u12a3\u12d5\u12cb\u134d": 5381,
  "\u2581\u12d5\u1295\u1328\u12ed\u1272": 5382,
  "\u2581\u130b": 5383,
  "li": 5384,
  "\u1213\u1295\u1272": 5385,
  "\u1228\u1209": 5386,
  "\u122d\u1255": 5387,
  "\u1230\u122a": 5388,
  "\u2581Corinth": 5389,
  "\u2581Happy": 5390,
  "\u2581c": 5391,
  "\u2581clothing": 5392,
  "\u2581grain": 5393,
  "\u2581reliable": 5394,
  "\u2581review": 5395,
  "\u2581victims": 5396,
  "\u2581\u122e\u121b": 5397,
  "\u2581\u1250\u133a\u120b": 5398,
  "\u2581\u1265\u12a5\u1270\u12bb\u12a5\u1208": 5399,
  "\u2581\u1265\u12d8\u120e": 5400,
  "\u2581\u1270\u1308\u1265\u1228": 5401,
  "\u2581\u1275\u122b\u12ad\u1275": 5402,
  "\u2581\u1295\u1230\u1260\u12ed\u1271": 5403,
  "\u2581\u1295\u1290\u1300\u12cd": 5404,
  "\u2581\u12cd\u12f3\u1230": 5405,
  "\u2581\u12d8\u12ed\u1272": 5406,
  "\u2581\u12dd\u12c8\u1338\u1275": 5407,
  "\u2581\u12e8\u122d\u12a2": 5408,
  "\u2581\u1348\u1208\u1325\u12a9": 5409,
  "\u2581\u134b\u1235\u130b": 5410,
  "ce": 5411,
  "\u1275\u1265\u133b\u1215": 5412,
  "\u2581Babylonian": 5413,
  "\u2581Source": 5414,
  "\u2581damage": 5415,
  "\u2581foundation": 5416,
  "\u2581gather": 5417,
  "\u2581pressures": 5418,
  "\u2581\u121b\u12d5\u133e": 5419,
  "\u2581\u122e": 5420,
  "\u2581\u1265\u120d\u123d\u12cd\u1293": 5421,
  "\u2581\u1295\u12a5\u12ee\u1265": 5422,
  "ower": 5423,
  "\u121d\u1295\u1245\u1325\u1243\u1325": 5424,
  "\u1264\u1275": 5425,
  "\u2581Russia": 5426,
  "\u2581approved": 5427,
  "\u2581associates": 5428,
  "\u2581developing": 5429,
  "\u2581distance": 5430,
  "\u2581endured": 5431,
  "\u2581maintaining": 5432,
  "\u2581plant": 5433,
  "\u2581removed": 5434,
  "\u2581theocratic": 5435,
  "\u2581\u1213\u1245\u1295": 5436,
  "\u2581\u121d\u12f5\u120b\u12cb\u1275": 5437,
  "\u2581\u1240\u122a\u1261": 5438,
  "\u2581\u125d\u133d\u122a": 5439,
  "\u2581\u1263\u12ed\u1273": 5440,
  "\u2581\u1295\u12a5\u12a1": 5441,
  "\u2581\u12a2\u1233": 5442,
  "\u2581\u12a5\u12d9\u12db\u1275": 5443,
  "\u2581\u12a8\u133d\u1295\u12d5": 5444,
  "\u2581\u12aa\u1205\u120d\u12c8\u1293": 5445,
  "\u2581\u12d5\u130d\u1260\u1275\u1295": 5446,
  "\u2581\u12dc\u1295\u1338\u1263\u122d\u1255": 5447,
  "\u2581\u12ed\u12db\u1228\u1265": 5448,
  "Be": 5449,
  "man": 5450,
  "\u1290\u1273": 5451,
  "\u12e8\u1231\u1235": 5452,
  "\u133d\u120a": 5453,
  "\u2581Concern": 5454,
  "\u2581Pilate": 5455,
  "\u2581appeal": 5456,
  "\u2581discernment": 5457,
  "\u2581historical": 5458,
  "\u2581ignore": 5459,
  "\u2581reputation": 5460,
  "\u2581\u1203\u12cb\u122d\u12eb\u1271": 5461,
  "\u2581\u12a8\u1295\u1271": 5462,
  "\u2581\u12c8\u134d\u122a": 5463,
  "\u2581\u12d5\u12f3": 5464,
  "\u2581\u1308\u121b\u130d\u121d": 5465,
  "20": 5466,
  "\u12ac": 5467,
  "\u2581Granted": 5468,
  "\u2581Internet": 5469,
  "\u2581Josiah": 5470,
  "\u2581conscious": 5471,
  "\u2581constant": 5472,
  "\u2581drawing": 5473,
  "\u2581drugs": 5474,
  "\u2581pleasant": 5475,
  "\u2581property": 5476,
  "\u2581suggest": 5477,
  "\u2581wipe": 5478,
  "\u2581\u1218\u1235\u1218\u122d": 5479,
  "\u2581\u1245\u12f1\u1231": 5480,
  "\u2581\u124d\u1320\u1263\u12ca": 5481,
  "\u2581\u1260\u1208\u1292": 5482,
  "\u2581\u1270\u1250": 5483,
  "\u2581\u12ad\u1308\u1265\u1229": 5484,
  "\u2581\u12e8\u1308\u120d\u130d\u1209": 5485,
  "\u2581\u12e9\u1292\u1268\u122d\u1232\u1272": 5486,
  "\u2581\u12ed\u1235\u121d\u12d3\u12ab": 5487,
  "\u2581\u12f0\u1243": 5488,
  "\u2581\u134d\u1321\u122d": 5489,
  "\u2581Nathan": 5490,
  "\u2581Peace": 5491,
  "\u2581distant": 5492,
  "\u2581gathering": 5493,
  "\u2581generous": 5494,
  "\u2581preserve": 5495,
  "\u2581spirits": 5496,
  "\u2581\u121d\u1275\u12d5\u122d\u122b\u12ed": 5497,
  "\u2581\u121d\u130d\u120b\u133d": 5498,
  "\u2581\u1230\u12ed\u1323\u1295\u1295": 5499,
  "\u2581\u1295\u1349\u12d5": 5500,
  "\u2581\u12a3\u1338\u1262\u1255": 5501,
  "\u2581\u12bb\u1263\u1273\u1276\u121d": 5502,
  "\u2581\u12d8\u12ed\u122d\u12a0": 5503,
  "\u25cf": 5504,
  "\u121d\u1209\u12a5": 5505,
  "\u25812003": 5506,
  "\u258154": 5507,
  "\u2581abandon": 5508,
  "\u2581attitudes": 5509,
  "\u2581bed": 5510,
  "\u2581empty": 5511,
  "\u2581finished": 5512,
  "\u2581newspaper": 5513,
  "\u2581\u121a\u120d\u12ad\u12eb\u1235": 5514,
  "\u2581\u121d\u1295\u1263\u122e\u121d": 5515,
  "\u2581\u1295\u12d8": 5516,
  "drew": 5517,
  "ous": 5518,
  "ul": 5519,
  "\u12a3\u1271": 5520,
  "\u2581145": 5521,
  "\u25813;": 5522,
  "\u2581SUBJECT": 5523,
  "\u2581boys": 5524,
  "\u2581imperfection": 5525,
  "\u2581literally": 5526,
  "\u2581northern": 5527,
  "\u2581passing": 5528,
  "\u2581plan": 5529,
  "\u2581possibly": 5530,
  "\u2581stayed": 5531,
  "\u2581stories": 5532,
  "\u2581\u1213\u120b\u12cd": 5533,
  "\u2581\u1218\u12ad\u1232\u12ae": 5534,
  "\u2581\u121d\u121d": 5535,
  "\u2581\u1235\u121d\u12d2\u1273\u12ca": 5536,
  "\u2581\u1265\u12ad\u122d\u1235\u1276\u1235": 5537,
  "\u2581\u1270\u1308\u12ed\u1229": 5538,
  "\u2581\u1295\u122d\u12a5\u1236\u121d": 5539,
  "\u2581\u12a3\u12f5\u122b\u123b\u1273\u1275": 5540,
  "\u2581\u12ad\u1265": 5541,
  "\u2581\u12d3\u122d\u12aa": 5542,
  "\u2581\u12d8\u12ed\u1295\u12bd\u12a5\u120d": 5543,
  "\u2581\u12da\u1235\u121d\u12d3\u1292": 5544,
  "\u2581\u12da\u12dd\u1218\u122d": 5545,
  "\u1303": 5546,
  "\u1320\u1255": 5547,
  "\u258130,": 5548,
  "\u2581Martha": 5549,
  "\u2581Prayer": 5550,
  "\u2581located": 5551,
  "\u2581officials": 5552,
  "\u2581painful": 5553,
  "\u2581prominent": 5554,
  "\u2581recreation": 5555,
  "\u2581\u1260\u1265": 5556,
  "\u2581\u1265\u121d\u1275\u12a5\u121d\u121b\u1295": 5557,
  "\u2581\u12a2\u1295\u1270\u122d\u1290\u1275": 5558,
  "\u2581\u12a3\u1275\u12e9": 5559,
  "\u2581\u12a3\u12d8\u12cd\u1272\u122d\u1293": 5560,
  "\u2581\u12dd\u1219\u1275": 5561,
  "\u2581\u12dd\u12b8\u12f1": 5562,
  "201": 5563,
  "\u1250\u12f3\u121d\u1290\u1275": 5564,
  "\u12d3\u1262": 5565,
  "\u258166": 5566,
  "\u2581Court": 5567,
  "\u2581IS": 5568,
  "\u2581Robert": 5569,
  "\u2581adults": 5570,
  "\u2581cells": 5571,
  "\u2581depends": 5572,
  "\u2581differences": 5573,
  "\u2581disaster": 5574,
  "\u2581finish": 5575,
  "\u2581foot": 5576,
  "\u2581patiently": 5577,
  "\u2581pre": 5578,
  "\u2581\u1213\u12ed\u120d\u1295": 5579,
  "\u2581\u121d\u12c3\u1295\u12ab": 5580,
  "\u2581\u122d\u12a5\u12e9": 5581,
  "\u2581\u1295\u1334\u1325\u122e\u1235": 5582,
  "\u2581\u12a3\u121d\u120b\u12bb\u12ca": 5583,
  "\u2581\u12a3\u1273\u12bd\u120d\u1272": 5584,
  "\u2581\u12aa\u1205\u120d\u12ce": 5585,
  "\u2581\u12d8\u12e8\u1208": 5586,
  "\u2581\u12dd\u1213\u12f0\u130e": 5587,
  "\u120b\u12ed": 5588,
  "\u122d\u12ce": 5589,
  "\u1235\u1270\u1295": 5590,
  "\u1293\u12b8": 5591,
  "\u12dd\u121d": 5592,
  "\u2581NY": 5593,
  "\u2581River": 5594,
  "\u2581attempt": 5595,
  "\u2581caught": 5596,
  "\u2581girls": 5597,
  "\u2581laid": 5598,
  "\u2581meek": 5599,
  "\u2581restore": 5600,
  "\u2581suggestions": 5601,
  "\u2581unclean": 5602,
  "\u2581\u1212\u12db": 5603,
  "\u2581\u1218\u120a\u1231": 5604,
  "\u2581\u1218\u12d3\u120d\u1275\u1295": 5605,
  "\u2581\u121d\u12f5": 5606,
  "\u2581\u1228\u125b\u1212": 5607,
  "\u2581\u1265\u1265\u1215\u1272": 5608,
  "\u2581\u1265\u12a1\u1265\u12a1": 5609,
  "\u2581\u1295\u1218\u133b\u12a2": 5610,
  "\u2581\u12a3\u122d\u12a3\u12eb": 5611,
  "\u2581\u12da\u1255\u133d\u120d": 5612,
  "\u2581\u12f0\u1208\u12e8": 5613,
  "\u2581\u130d\u122b\u1275": 5614,
  "\u2581\u134a\u12f0\u120b\u1275": 5615,
  "\u134d\u1295": 5616,
  "\u258118]": 5617,
  "\u258156": 5618,
  "\u2581Find": 5619,
  "\u2581begins": 5620,
  "\u2581depend": 5621,
  "\u2581establish": 5622,
  "\u2581intense": 5623,
  "\u2581opposite": 5624,
  "\u2581preparing": 5625,
  "\u2581relate": 5626,
  "\u2581torture": 5627,
  "\u2581warns": 5628,
  "\u2581wisely": 5629,
  "\u2581\u1203\u1338\u12ed": 5630,
  "\u2581\u1215\u12f3\u122d": 5631,
  "\u2581\u1218\u120d\u1231": 5632,
  "\u2581\u121d\u1255\u122b\u1265": 5633,
  "\u2581\u1265\u122b\u12da\u120d": 5634,
  "\u2581\u1265\u12e8\u1231\u1235": 5635,
  "\u2581\u1275\u123d\u12d3\u1270": 5636,
  "\u2581\u12a3\u1250\u12f2\u121b": 5637,
  "\u2581\u12d8\u1270\u12b0\u1228": 5638,
  "\u2581\u12d8\u12ed\u134d\u1275\u1213\u12ca": 5639,
  "\u2581\u12f0\u120a\u1293": 5640,
  "\u2581\u134d\u1209\u12eb\u1275": 5641,
  "ity": 5642,
  "keep": 5643,
  "\u2581USED": 5644,
  "\u2581defend": 5645,
  "\u2581glorify": 5646,
  "\u2581unrighteous": 5647,
  "\u2581\u1218\u12c8\u12a8\u1232": 5648,
  "\u2581\u1265\u121d\u1235\u121d\u121b\u12d5": 5649,
  "\u2581\u1265\u12a3\u12bd\u1265\u122e\u1275": 5650,
  "\u2581\u1270\u133b\u1212\u1349": 5651,
  "\u2581\u12a2\u12ba": 5652,
  "\u2581\u12a3\u12cb\u1305": 5653,
  "\u2581\u12da\u12b8\u12f1": 5654,
  "el": 5655,
  "our": 5656,
  "\u120a\u1295": 5657,
  "\u1250\u12f5\u121d": 5658,
  "\u12a9\u121d\u1295": 5659,
  "\u12e8\u12ed": 5660,
  "\u134d\u1228": 5661,
  "\u258152": 5662,
  "\u2581Brazil": 5663,
  "\u2581Greece": 5664,
  "\u2581November": 5665,
  "\u2581adopt": 5666,
  "\u2581cared": 5667,
  "\u2581contained": 5668,
  "\u2581surface": 5669,
  "\u2581tempted": 5670,
  "\u2581tests": 5671,
  "\u2581\u1204\u1296\u12ad": 5672,
  "\u2581\u1205\u12dd\u1245\u12eb\u1235": 5673,
  "\u2581\u1213\u1270\u1273": 5674,
  "\u2581\u1213\u1325\u12a5": 5675,
  "\u2581\u121d\u1205\u120b\u12c9": 5676,
  "\u2581\u1230\u1219\u1293\u1275": 5677,
  "\u2581\u1295\u1261\u122d": 5678,
  "\u2581\u12a5\u1275\u1218\u133d\u12a5": 5679,
  "\u2581\u12b8\u12e8": 5680,
  "\u2581\u12dd\u134b\u1295": 5681,
  "one": 5682,
  "\u122b\u1295": 5683,
  "\u130b\u1308": 5684,
  "\u2581East": 5685,
  "\u2581fit": 5686,
  "\u2581meditation": 5687,
  "\u2581scientists": 5688,
  "\u2581\u121e\u12ed\u1276\u121d": 5689,
  "\u2581\u1275\u122d\u12a2\u1275": 5690,
  "\u2581\u1295\u1213": 5691,
  "\u2581\u1295\u12d3\u1273\u1276\u121d": 5692,
  "\u2581\u12a5\u1270\u1320\u1255\u1218\u1209": 5693,
  "\u2581\u12dd\u1338\u1213\u134b": 5694,
  "\u2581\u12e9": 5695,
  "\u2581\u1356\u1208\u1272\u12ab": 5696,
  "1914": 5697,
  "\u1239": 5698,
  "\u1265\u12d8\u120e": 5699,
  "\u12f5\u1215\u1295": 5700,
  "\u2581Ear": 5701,
  "\u2581Galilee": 5702,
  "\u2581Unlike": 5703,
  "\u2581commands": 5704,
  "\u2581conversations": 5705,
  "\u2581perfection": 5706,
  "\u2581project": 5707,
  "\u2581raising": 5708,
  "\u2581refreshing": 5709,
  "\u2581sorts": 5710,
  "\u2581\u1205\u12eb\u12cb\u1295": 5711,
  "\u2581\u1213\u1208\u134d": 5712,
  "\u2581\u1235\u1229\u12d5": 5713,
  "\u2581\u1250\u122a\u1261": 5714,
  "\u2581\u1265\u121d\u1325\u1243\u1235": 5715,
  "\u2581\u1265\u121e\u1275": 5716,
  "\u2581\u12a4\u1295\u12f5": 5717,
  "\u2581\u12ed\u12db\u1228\u1261": 5718,
  "\u2581\u12f5\u1215\u122d": 5719,
  "\u2581\u1308\u120a": 5720,
  "\u2581\u130b\u123b": 5721,
  "\u2581\u1338\u1315\u122a": 5722,
  "\u1208\u1275": 5723,
  "\u1230\u120d": 5724,
  "\u1255\u12f1\u1233\u1275": 5725,
  "\u1260\u1228": 5726,
  "\u1295\u1308\u120a\u12a6\u121d": 5727,
  "\u12ce\u121d\u1295": 5728,
  "\u2581120": 5729,
  "\u2581Columbia": 5730,
  "\u2581Isa": 5731,
  "\u2581brain": 5732,
  "\u2581custom": 5733,
  "\u2581dangers": 5734,
  "\u2581exposed": 5735,
  "\u2581extend": 5736,
  "\u2581extended": 5737,
  "\u2581foolish": 5738,
  "\u2581labor": 5739,
  "\u2581likened": 5740,
  "\u2581ordered": 5741,
  "\u2581street": 5742,
  "\u2581tabernacle": 5743,
  "\u2581upbuilding": 5744,
  "\u2581\u1295\u1215\u1293\u12b8": 5745,
  "\u2581\u1295\u12cd\u1209\u12f3\u1275": 5746,
  "\u2581\u12a2\u12f5\u12ab": 5747,
  "\u2581\u12a3\u1208\u12bb": 5748,
  "\u2581\u12a5\u1293\u1260\u1208": 5749,
  "\u2581\u12f0\u1261\u1263\u12ca": 5750,
  "\u2581\u1308\u120a\u120b": 5751,
  "\u12ee\u1295": 5752,
  "\u2581Italy": 5753,
  "\u2581acquire": 5754,
  "\u2581alert": 5755,
  "\u2581burden": 5756,
  "\u2581campaign": 5757,
  "\u2581divided": 5758,
  "\u2581huge": 5759,
  "\u2581participate": 5760,
  "\u2581permanent": 5761,
  "\u2581significance": 5762,
  "\u2581\u1215\u122d\u123b": 5763,
  "\u2581\u121d\u1235\u12a3": 5764,
  "\u2581\u1295\u1218\u1295\u1348\u1235": 5765,
  "\u2581\u12d8\u1215\u12dd\u1295": 5766,
  "\u2581\u12dc\u1338\u1293\u1295\u12d5": 5767,
  "\u2581\u12f5\u12bb": 5768,
  "\u12a3\u1271\u121d": 5769,
  "\u1308\u1208": 5770,
  "\u2581Japan": 5771,
  "\u2581Use": 5772,
  "\u2581applies": 5773,
  "\u2581attacks": 5774,
  "\u2581attain": 5775,
  "\u2581claimed": 5776,
  "\u2581gained": 5777,
  "\u2581intended": 5778,
  "\u2581paying": 5779,
  "\u2581serpent": 5780,
  "\u2581welfare": 5781,
  "\u2581\u1215\u1265\u1228\u1275": 5782,
  "\u2581\u122d": 5783,
  "\u2581\u1265\u123d\u12ad\u1208\u1273": 5784,
  "\u2581\u12aa\u12b8\u12f1": 5785,
  "\u127d": 5786,
  "\u258131,": 5787,
  "\u2581Spiritual": 5788,
  "\u2581anymore": 5789,
  "\u2581broken": 5790,
  "\u2581clergy": 5791,
  "\u2581inherited": 5792,
  "\u2581memory": 5793,
  "\u2581newly": 5794,
  "\u2581primarily": 5795,
  "\u2581teenager": 5796,
  "\u2581weaknesses": 5797,
  "\u2581\u1215\u1219\u121b\u1275": 5798,
  "\u2581\u1228\u12f5\u12a4\u1275": 5799,
  "\u2581\u1260\u12f0\u120d": 5800,
  "\u2581\u1293\u12da": 5801,
  "\u2581\u1295\u12cd\u1230\u12f5": 5802,
  "\u2581\u12a3\u120e\u12f6": 5803,
  "\u2581\u12a3\u130b\u1320\u121e": 5804,
  "\u2581\u12a5\u1295\u1270\u12c0\u1291": 5805,
  "\u2581\u12da\u1205\u1266\u121d": 5806,
  "\u2581\u12dd\u1228\u12b8\u1265\u12ad\u12ce": 5807,
  "\u2581\u12f3\u12ca\u1275\u1295": 5808,
  "\u2581\u12f5\u122b\u121b": 5809,
  "\u2581\u1308\u1203\u1290\u121d": 5810,
  "\u2581\u134d\u1325\u1228\u1273\u1275": 5811,
  "\u1235\u12d5\u1266": 5812,
  "\u12a3\u12ad\u120d": 5813,
  "\u2581Heart": 5814,
  "\u2581add": 5815,
  "\u2581arms": 5816,
  "\u2581enjoying": 5817,
  "\u2581principal": 5818,
  "\u2581seventh": 5819,
  "\u2581theme": 5820,
  "\u2581\u120e\u1325": 5821,
  "\u2581\u1218\u1233\u122d\u1212": 5822,
  "\u2581\u121b\u1208\u1271": 5823,
  "\u2581\u121d\u122d\u12ae": 5824,
  "\u2581\u121d\u1235\u1322\u122d": 5825,
  "\u2581\u1270\u122a\u122d": 5826,
  "\u2581\u1295\u12f5\u1215\u122a\u1275": 5827,
  "\u2581\u12a3\u1255\u12cb\u121d": 5828,
  "\u2581\u12c8\u12f3": 5829,
  "\u2581\u12d5\u12f3\u130b": 5830,
  "\u2581\u12da\u1235\u121d\u12d6": 5831,
  "\u2581\u12dc\u12bd\u12a5\u1208\u1293": 5832,
  "\u2581\u12dd\u1203\u1260": 5833,
  "\u2581\u12dd\u1270\u1228\u1348": 5834,
  "\u2581\u12e8\u12f5\u120d\u12ee": 5835,
  "\u2581\u1325\u12d1\u121d": 5836,
  "\u2581\u134d\u1321\u122b\u1275": 5837,
  "\u120b\u1275": 5838,
  "\u25813,000": 5839,
  "\u2581IT": 5840,
  "\u2581Things": 5841,
  "\u2581charge": 5842,
  "\u2581songs": 5843,
  "\u2581tend": 5844,
  "\u2581\u1273\u122a\u12bb\u12ca": 5845,
  "\u2581\u12a3\u1215\u12cb\u1271": 5846,
  "\u2581\u12a5\u1270\u1348\u120b\u1208\u12e9": 5847,
  "\u2581\u12ad\u12a2\u120b\u1273\u1275": 5848,
  "\u2581\u12ad\u1349\u12a5\u1295": 5849,
  "\u2581\u12da\u125d\u1338\u122d": 5850,
  "\u120d\u12ce": 5851,
  "\u2581compassionate": 5852,
  "\u2581cross": 5853,
  "\u2581doctrine": 5854,
  "\u2581idolatry": 5855,
  "\u2581mine": 5856,
  "\u2581obeying": 5857,
  "\u2581pornography": 5858,
  "\u2581protected": 5859,
  "\u2581soil": 5860,
  "\u2581touch": 5861,
  "\u2581treasures": 5862,
  "\u2581\u1270\u1230\u121d\u12d3\u1292": 5863,
  "\u2581\u1274": 5864,
  "\u2581\u12a3\u1205\u1309\u122b\u12ca": 5865,
  "\u2581\u12a3\u1260\u1203\u1205\u120b": 5866,
  "\u2581\u12ad\u12a2\u120b": 5867,
  "\u2581\u12c8\u1270\u1203\u12f0\u122b\u12ca": 5868,
  "\u2581\u12ed\u1201\u12f3\u1295": 5869,
  "\u2581\u130d\u1265\u1228": 5870,
  "\u2581\u1338\u1292\u1213": 5871,
  "L": 5872,
  "\u2581initiative": 5873,
  "\u2581limit": 5874,
  "\u2581planet": 5875,
  "\u2581solid": 5876,
  "\u2581wheat": 5877,
  "\u2581widely": 5878,
  "\u2581\u12ad\u1295\u121d\u122d\u121d\u122d": 5879,
  "\u2581\u12c8\u1230\u12f0": 5880,
  "\u2581\u12dd\u1260\u12dd\u1215": 5881,
  "\u2581\u132b\u134d": 5882,
  "ne": 5883,
  "\u12f5\u130d": 5884,
  "\u1308\u120a\u12a1": 5885,
  "\u25815]": 5886,
  "\u2581Master": 5887,
  "\u2581Trinity": 5888,
  "\u2581adjust": 5889,
  "\u2581cell": 5890,
  "\u2581complex": 5891,
  "\u2581contain": 5892,
  "\u2581dust": 5893,
  "\u2581executed": 5894,
  "\u2581factor": 5895,
  "\u2581skin": 5896,
  "\u2581trusting": 5897,
  "\u2581win": 5898,
  "\u2581\u121d\u130d\u1265": 5899,
  "\u2581\u1265\u1213\u1242\u12f6": 5900,
  "\u2581\u1270\u1213\u1273\u1272": 5901,
  "\u2581\u1270\u12a3\u12db\u12dd\u1290\u1275": 5902,
  "\u2581\u1270\u1320\u1252\u121e\u121d": 5903,
  "\u2581\u1270\u1338": 5904,
  "\u2581\u1290\u1308\u12f5": 5905,
  "\u2581\u1295\u1322\u121e\u1274\u12ce\u1235": 5906,
  "\u2581\u12a3\u1260\u12e8": 5907,
  "\u2581\u12a3\u1293": 5908,
  "\u2581\u12a3\u12ed\u12a8\u12a3\u1208\u1295": 5909,
  "\u2581\u12ad\u120d\u1272\u12a1": 5910,
  "\u2581\u12cb\u1205\u12ee\u1273\u1275": 5911,
  "\u2581\u12d8\u12f3\u1208\u12ce": 5912,
  "\u2581\u12da\u1235\u121d\u12d3\u12ab": 5913,
  "\u2581\u12f0\u12ed": 5914,
  "\u1242": 5915,
  "\u2581Human": 5916,
  "\u2581Judea": 5917,
  "\u2581Times": 5918,
  "\u2581birds": 5919,
  "\u2581devoted": 5920,
  "\u2581leader": 5921,
  "\u2581origin": 5922,
  "\u2581partner": 5923,
  "\u2581shortly": 5924,
  "\u2581thankful": 5925,
  "\u2581\u1245\u12f1\u1233\u12ca": 5926,
  "\u2581\u1265\u1229\u12ad\u120a\u1295": 5927,
  "\u2581\u1271": 5928,
  "\u2581\u12a5\u1303\u121d": 5929,
  "\u2581\u12dc\u12f5\u120d\u12e9": 5930,
  "\u2581\u12ed\u1308\u1265\u122e": 5931,
  "\u2581\u12f5\u1209\u12cd": 5932,
  "\u2581\u12f6\u120b\u122d": 5933,
  "\u2581\u1338\u1228": 5934,
  "16": 5935,
  "70": 5936,
  "\u1295\u12a3\u121d\u120b\u12bd": 5937,
  "\u12c8\u12f5\u1230\u1265": 5938,
  "\u134d\u133d\u121e": 5939,
  "\u2581150": 5940,
  "\u2581Ahab": 5941,
  "\u2581Congregation": 5942,
  "\u2581accompany": 5943,
  "\u2581accord": 5944,
  "\u2581arrested": 5945,
  "\u2581beast": 5946,
  "\u2581dark": 5947,
  "\u2581entrusted": 5948,
  "\u2581existed": 5949,
  "\u2581firstborn": 5950,
  "\u2581format": 5951,
  "\u2581headquarters": 5952,
  "\u2581lovers": 5953,
  "\u2581population": 5954,
  "\u2581suddenly": 5955,
  "\u2581tendency": 5956,
  "\u2581unless": 5957,
  "\u2581\u1205\u1261\u1265": 5958,
  "\u2581\u1218\u12dd\u1308\u1260": 5959,
  "\u2581\u122d\u1215\u122b\u1210": 5960,
  "\u2581\u1230\u120b\u121b\u12ca": 5961,
  "\u2581\u12aa\u1348\u120d\u1321": 5962,
  "\u2581\u12ba\u1218\u133d\u12a5": 5963,
  "\u2581\u12da\u1205\u1261": 5964,
  "\u2581\u12ed\u1218\u133d\u12a5": 5965,
  "\u2581\u12f5\u12bb\u121d": 5966,
  "\u2581\u134d\u133d\u121d\u1293": 5967,
  "not": 5968,
  "\u120d\u1230": 5969,
  "\u12a3\u1265\u1272": 5970,
  "\u12a5\u1295\u1206": 5971,
  "\u12cd\u12d5\u120d": 5972,
  "\u2581Often": 5973,
  "\u2581afterward": 5974,
  "\u2581bow": 5975,
  "\u2581comment": 5976,
  "\u2581confront": 5977,
  "\u2581mark": 5978,
  "\u2581moon": 5979,
  "\u2581poured": 5980,
  "\u2581talks": 5981,
  "\u2581\u1218\u1325\u1263\u1215\u1272": 5982,
  "\u2581\u121d\u1215": 5983,
  "\u2581\u1270\u12a3\u12aa\u1266\u121d": 5984,
  "\u2581\u1275\u121d\u1205\u122d\u1275\u1295": 5985,
  "\u2581\u1296\u122d": 5986,
  "\u2581\u12a3\u1290\u1263\u1265\u122b": 5987,
  "\u2581\u12ed\u1205\u1266\u121d": 5988,
  "\u2581\u12ed\u1325\u1240\u1219": 5989,
  "\u2581\u12ee\u1293\u1273\u1295": 5990,
  "\u1348\u120d": 5991,
  "\u2581Museum": 5992,
  "\u2581calamity": 5993,
  "\u2581credit": 5994,
  "\u2581fitting": 5995,
  "\u2581opinion": 5996,
  "\u2581rewarded": 5997,
  "\u2581rewarding": 5998,
  "\u2581sold": 5999,
  "\u2581threat": 6000,
  "\u2581\u121d\u1295\u1245\u1235\u1253\u1235": 6001,
  "\u2581\u122a": 6002,
  "\u2581\u126a": 6003,
  "\u2581\u1295\u121d\u1265\u133b\u1215": 6004,
  "\u2581\u1295\u1235\u1219": 6005,
  "\u2581\u1295\u12a3\u12f3\u121d": 6006,
  "\u2581\u1295\u130d\u12dc\u12a1": 6007,
  "\u2581\u12a3\u12c8\u12f3\u1275": 6008,
  "\u2581\u12a3\u12ed\u1201\u12f3\u12ca": 6009,
  "\u2581\u12a3\u12ed\u121d": 6010,
  "\u2581\u12a3\u12ed\u1290\u1260\u122e\u121d\u1295": 6011,
  "\u2581\u12a4\u12cd\u122e\u1333": 6012,
  "\u2581\u12cd\u12f2\u1275": 6013,
  "\u2581\u12ce": 6014,
  "\u2581\u12d3\u12f6\u121d": 6015,
  "14": 6016,
  "17": 6017,
  "\u1206": 6018,
  "\u1233\u1270\u134d": 6019,
  "\u258125]": 6020,
  "\u2581Committee": 6021,
  "\u2581News": 6022,
  "\u2581chance": 6023,
  "\u2581flee": 6024,
  "\u2581marked": 6025,
  "\u2581quiet": 6026,
  "\u2581safeguard": 6027,
  "\u2581ship": 6028,
  "\u2581symbolic": 6029,
  "\u2581\u1235\u120b\u1234": 6030,
  "\u2581\u1265\u1251\u12d3\u1275": 6031,
  "\u2581\u1270\u1348\u133a\u1219": 6032,
  "\u2581\u1295\u1230\u1265\u12a3\u12eb": 6033,
  "\u2581\u12a3\u120d\u12e9": 6034,
  "\u2581\u12a3\u1255\u123d\u123d\u1272": 6035,
  "\u2581\u12a5\u1270\u1290\u1260\u12ee": 6036,
  "\u2581\u12d8\u12f5\u120d\u12ee\u121d": 6037,
  "\u2581\u12da\u1265\u120d\u12ce": 6038,
  "\u2581\u12f0\u1235": 6039,
  "\u133d\u1261\u1255": 6040,
  "\u2581AND": 6041,
  "\u2581Titus": 6042,
  "\u2581burning": 6043,
  "\u2581choosing": 6044,
  "\u2581grave": 6045,
  "\u2581hidden": 6046,
  "\u2581inherit": 6047,
  "\u2581isolated": 6048,
  "\u2581proceeded": 6049,
  "\u2581running": 6050,
  "\u2581sets": 6051,
  "\u2581victim": 6052,
  "\u2581\u120d\u1265\u1295": 6053,
  "\u2581\u1215\u1265\u122a": 6054,
  "\u2581\u1218\u12f5\u1203\u1292\u1275": 6055,
  "\u2581\u122d\u1212\u1253": 6056,
  "\u2581\u1230\u122b\u1215\u1270\u129b\u1273\u1275": 6057,
  "\u2581\u1236\u12f6\u121d": 6058,
  "\u2581\u1265\u1208\u12cd\u1203\u1275": 6059,
  "\u2581\u1265\u121d\u12c3\u1296\u121d": 6060,
  "\u2581\u1270\u1218\u1203\u122b\u12ed": 6061,
  "\u2581\u1295\u121e\u1275": 6062,
  "\u2581\u1295\u1260\u120d": 6063,
  "\u2581\u1295\u1339\u1203\u1275": 6064,
  "\u2581\u12a3\u1215\u120a\u1349": 6065,
  "\u2581\u12a3\u1266\u1273\u1275": 6066,
  "\u2581\u12ad\u1228\u12ad\u1265": 6067,
  "\u2581\u1308\u1295\u1238\u120d": 6068,
  "\u2581\u1308\u12ed\u122d\u12ce": 6069,
  "his": 6070,
  "ra": 6071,
  "w": 6072,
  "\u1338\u120d": 6073,
  "\u258183": 6074,
  "\u2581Gideon": 6075,
  "\u2581Heights": 6076,
  "\u2581Jordan": 6077,
  "\u2581Sermon": 6078,
  "\u2581average": 6079,
  "\u2581cast": 6080,
  "\u2581clothes": 6081,
  "\u2581commandment": 6082,
  "\u2581explanation": 6083,
  "\u2581famous": 6084,
  "\u2581hospitality": 6085,
  "\u2581style": 6086,
  "\u2581worker": 6087,
  "\u2581\u1218\u134d\u1275\u1212": 6088,
  "\u2581\u1295\u12a3\u1308\u120d\u130d\u120e\u1275": 6089,
  "\u2581\u12a3\u1270\u12d3\u1263\u1265\u12eb": 6090,
  "\u2581\u12ad\u1265\u120d": 6091,
  "\u2581\u12db": 6092,
  "\u2581\u12dd\u1213\u12d8\u1275": 6093,
  "\u2581\u12f0\u1245\u12bb": 6094,
  "\u2581\u130c\u122d\u12a9\u121d": 6095,
  "side": 6096,
  "\u121c": 6097,
  "\u123d\u1295": 6098,
  "\u12bd\u1295": 6099,
  "\u12eb\u1275": 6100,
  "\u2581African": 6101,
  "\u2581Besides": 6102,
  "\u2581Egyptian": 6103,
  "\u2581Sunday": 6104,
  "\u2581creature": 6105,
  "\u2581judges": 6106,
  "\u2581reads": 6107,
  "\u2581surrounded": 6108,
  "\u2581thanks": 6109,
  "\u2581\u1218\u120d\u12ad\u12d5": 6110,
  "\u2581\u121d\u120d\u12ad\u1273\u1275": 6111,
  "\u2581\u1230\u1265\u12a3\u12e8\u12ed": 6112,
  "\u2581\u1265\u1213\u12ed\u120a": 6113,
  "\u2581\u1293\u1271": 6114,
  "\u2581\u1293\u1273\u1295": 6115,
  "\u2581\u1293\u12a5\u12f3": 6116,
  "\u2581\u12a3\u1208\u1293": 6117,
  "\u2581\u12d5\u120d\u12c8\u1275": 6118,
  "\u2581\u12d8\u134d": 6119,
  "\u2581\u12da\u1205\u1265\u12ce": 6120,
  "\u2581\u12da\u12c8\u1235\u12f5": 6121,
  "\u2581\u12dd\u12a8\u12a3\u120d": 6122,
  "\u2581\u12f5\u1295\u12b3\u1295": 6123,
  "\u25a1": 6124,
  "7": 6125,
  "\u122d\u12ad": 6126,
  "\u1265\u1228": 6127,
  "\u1274": 6128,
  "\u12be\u134d": 6129,
  "\u258113]": 6130,
  "\u2581Answered": 6131,
  "\u2581February": 6132,
  "\u2581acknowledged": 6133,
  "\u2581believing": 6134,
  "\u2581calm": 6135,
  "\u2581delighted": 6136,
  "\u2581guilty": 6137,
  "\u2581lips": 6138,
  "\u2581looks": 6139,
  "\u2581meditating": 6140,
  "\u2581miracle": 6141,
  "\u2581reap": 6142,
  "\u2581searching": 6143,
  "\u2581tear": 6144,
  "\u2581threatened": 6145,
  "\u2581urges": 6146,
  "\u2581vow": 6147,
  "\u2581\u1213\u12c9": 6148,
  "\u2581\u1213\u12ed\u120d\u1273\u1275": 6149,
  "\u2581\u1295\u121d\u122d\u12a3\u12ed": 6150,
  "\u2581\u1295\u12d3": 6151,
  "\u2581\u12a3\u12ed\u12aa\u12b8\u12cd\u1295\u1295": 6152,
  "\u2581\u12b9\u1295": 6153,
  "\u2581\u12c8\u1230\u1295\u12a9": 6154,
  "\u2581\u12da\u1320\u1245\u121d": 6155,
  "\u2581\u12f3": 6156,
  "F": 6157,
  "\u1228\u1275": 6158,
  "\u1260\u120b": 6159,
  "\u2581cruel": 6160,
  "\u2581depth": 6161,
  "\u2581habit": 6162,
  "\u2581modesty": 6163,
  "\u2581observing": 6164,
  "\u2581\u121d\u121d\u1215\u12f3\u122d": 6165,
  "\u2581\u1245\u120d\u1321\u134d": 6166,
  "\u2581\u1258\u122b\u133d\u1290\u1275": 6167,
  "\u2581\u1265\u121b\u12ed": 6168,
  "\u2581\u1265\u12a3\u121b": 6169,
  "\u2581\u1295\u12a5": 6170,
  "\u2581\u1295\u12d8\u1208\u12c9": 6171,
  "\u2581\u12a3\u1218\u120d\u12aa\u1271": 6172,
  "\u2581\u12a3\u121e\u133d": 6173,
  "\u2581\u12a3\u1308\u12f3\u1232\u1275": 6174,
  "\u2581\u12ad\u12f3\u1295": 6175,
  "\u2581\u12cd\u1215\u1235\u1290\u1275": 6176,
  "\u2581\u12f5\u1209\u12cb\u1275": 6177,
  "\u2581\u134d\u120d\u1240\u1275": 6178,
  "\u122d\u1235": 6179,
  "\u1265\u122d\u1271\u12d5": 6180,
  "\u2581Empire": 6181,
  "\u2581Within": 6182,
  "\u2581advancement": 6183,
  "\u2581eagerly": 6184,
  "\u2581earnestly": 6185,
  "\u2581eliminate": 6186,
  "\u2581minutes": 6187,
  "\u2581north": 6188,
  "\u2581opposed": 6189,
  "\u2581ran": 6190,
  "\u2581silent": 6191,
  "\u2581watching": 6192,
  "\u2581\u1233\u12cd\u120d": 6193,
  "\u2581\u1235\u122d\u12d3\u1273\u1275\u1295": 6194,
  "\u2581\u1260\u12d3\u120b\u1275": 6195,
  "\u2581\u1275\u1308\u1265\u122d": 6196,
  "\u2581\u1295\u12ad\u122d\u1235\u1275\u12eb\u1293\u12ca": 6197,
  "\u2581\u12a8\u120e\u12bb": 6198,
  "\u2581\u12b8\u1270\u121b\u1273\u1275": 6199,
  "\u2581\u12d5\u1295\u12c8\u1275": 6200,
  "\u2581\u12dd\u12f0\u1208\u12e8": 6201,
  "\u2581\u12ed\u130d\u1265\u12a3\u1293": 6202,
  "\u2581\u12ee\u1235\u12eb\u1235": 6203,
  "\u2581\u1355\u122e\u130d\u122b\u121d": 6204,
  "ling": 6205,
  "\u12a3\u1266": 6206,
  "\u25811997": 6207,
  "\u2581Abram": 6208,
  "\u2581Herod": 6209,
  "\u2581depressed": 6210,
  "\u2581\u1208\u12ab\u1272\u1275": 6211,
  "\u2581\u121b\u12eb\u1275": 6212,
  "\u2581\u121d\u1235\u12a6\u121d": 6213,
  "\u2581\u1265\u133e\u1275": 6214,
  "\u2581\u1295\u1235\u122d\u12d3\u1273\u1275": 6215,
  "\u2581\u1295\u133d\u1205\u1293\u1293": 6216,
  "\u2581\u12a3\u130b\u1295\u1295\u1272": 6217,
  "\u2581\u12d3\u1255\u121d\u1293": 6218,
  "\u2581\u12d5\u12ee\u12a1": 6219,
  "\u2581\u12ed\u122d\u12a5\u12ee": 6220,
  "\u121d\u1203\u122d": 6221,
  "\u12c0": 6222,
  "\u1308\u120d\u133d": 6223,
  "\u1308\u12f5": 6224,
  "\u258131]": 6225,
  "\u2581DO": 6226,
  "\u2581Dr": 6227,
  "\u2581Leviticus": 6228,
  "\u2581Three": 6229,
  "\u2581grand": 6230,
  "\u2581mourning": 6231,
  "\u2581residents": 6232,
  "\u2581rock": 6233,
  "\u2581\u1218\u1308\u12f5": 6234,
  "\u2581\u121b\u122d\u1273": 6235,
  "\u2581\u122d\u12a2\u1293": 6236,
  "\u2581\u1270\u12db\u122b\u1263\u12ed": 6237,
  "\u2581\u1270\u12f0\u122a\u12be\u121d": 6238,
  "\u2581\u1293\u12a5\u121a": 6239,
  "\u2581\u1295\u12d8\u12ed": 6240,
  "\u2581\u12a3\u121d": 6241,
  "\u2581\u12a3\u1260\u1233": 6242,
  "\u2581\u12b8\u12ed\u12f1": 6243,
  "\u2581\u12d8\u1215\u1208\u134e": 6244,
  "\u2581\u12da\u12c8\u1203\u1265": 6245,
  "\u2581\u12dd\u1213\u1275\u1275": 6246,
  "\u2581\u12dd\u1213\u1308\u12de": 6247,
  "\u2581\u130d": 6248,
  "483,": 6249,
  "\u122d\u12a5\u12eb": 6250,
  "\u130d\u1260\u122d": 6251,
  "\u25811940": 6252,
  "\u2581St": 6253,
  "\u2581capable": 6254,
  "\u2581desirable": 6255,
  "\u2581development": 6256,
  "\u2581fields": 6257,
  "\u2581finds": 6258,
  "\u2581fourth": 6259,
  "\u2581leaves": 6260,
  "\u2581spending": 6261,
  "\u2581stronger": 6262,
  "\u2581\u1205\u120b\u12c8": 6263,
  "\u2581\u121d\u12c3\u1290\u12ed": 6264,
  "\u2581\u121d\u12cd\u133b\u12a5": 6265,
  "\u2581\u1230\u1260\u12ed\u1271\u1295": 6266,
  "\u2581\u1265\u121d\u12bb\u12f5": 6267,
  "\u2581\u1270\u1228\u134d": 6268,
  "\u2581\u1295\u120d\u1265\u1293": 6269,
  "\u2581\u12a3\u12f5": 6270,
  "\u2581\u12ab\u1263\u1293": 6271,
  "\u2581\u12da\u12f0\u120d\u12ee": 6272,
  "\u2581\u12dd\u1308\u1260\u122d\u12ad\u12ce": 6273,
  "By": 6274,
  "\u1218\u1295\u1348\u1235": 6275,
  "\u2581Fear": 6276,
  "\u2581India": 6277,
  "\u2581bitter": 6278,
  "\u2581color": 6279,
  "\u2581preserved": 6280,
  "\u2581returning": 6281,
  "\u2581\u1213\u120b\u134a": 6282,
  "\u2581\u1218\u122d\u1275\u12d6\u1273\u1275": 6283,
  "\u2581\u1218\u1348\u1295\u1320\u122b": 6284,
  "\u2581\u1263\u1205\u120a": 6285,
  "\u2581\u1263\u12ed\u1265\u120d": 6286,
  "\u2581\u1290\u122d\u12a2": 6287,
  "\u2581\u12a3\u1275\u1212\u12de\u121d": 6288,
  "\u2581\u12a5\u1270\u1290\u130d\u1228": 6289,
  "\u2581\u12ad\u1290\u1231": 6290,
  "\u2581\u12bb\u120d\u12a0\u12ed\u1272": 6291,
  "\u2581\u12c8\u1230\u1290": 6292,
  "\u2581\u12dd\u1205\u1265": 6293,
  "\u2581\u12dd\u1213": 6294,
  "\u1218\u1228": 6295,
  "\u1235\u1260\u12bd": 6296,
  "\u1325\u122a": 6297,
  "\u2581Hosea": 6298,
  "\u2581Making": 6299,
  "\u2581addressed": 6300,
  "\u2581contributed": 6301,
  "\u2581impact": 6302,
  "\u2581iron": 6303,
  "\u2581morally": 6304,
  "\u2581patriarch": 6305,
  "\u2581remnant": 6306,
  "\u2581reply": 6307,
  "\u2581subjection": 6308,
  "\u2581table": 6309,
  "\u2581tradition": 6310,
  "\u2581wrath": 6311,
  "\u2581\u121b\u1215\u1270\u121d": 6312,
  "\u2581\u1228\u1232\u12a3\u1295": 6313,
  "\u2581\u12a3\u1266\u1295": 6314,
  "\u2581\u12a3\u12a5\u12cb\u121d": 6315,
  "\u2581\u12a3\u12ab\u12ed\u12f3": 6316,
  "\u2581\u12aa\u12db\u1228\u1265": 6317,
  "\u2581\u12cd\u12f5\u12f5\u122d": 6318,
  "\u2581\u12e8\u12bd\u12a5\u1208\u1293": 6319,
  "other": 6320,
  "\u1203\u122d": 6321,
  "\u1290\u1209": 6322,
  "\u2581University": 6323,
  "\u2581Way": 6324,
  "\u2581accused": 6325,
  "\u2581atmosphere": 6326,
  "\u2581below": 6327,
  "\u2581features": 6328,
  "\u2581hell": 6329,
  "\u2581level": 6330,
  "\u2581location": 6331,
  "\u2581mistake": 6332,
  "\u2581pictures": 6333,
  "\u2581remembered": 6334,
  "\u2581sayings": 6335,
  "\u2581services": 6336,
  "\u2581visitors": 6337,
  "\u2581warfare": 6338,
  "\u2581\u1218\u12f3": 6339,
  "\u2581\u124d\u133d": 6340,
  "\u2581\u1264\u1270\u12ed\u1295": 6341,
  "\u2581\u1270\u12cb\u1202\u1265\u12ce\u121d": 6342,
  "\u2581\u1295\u12f5\u12bb\u1273\u1275": 6343,
  "\u2581\u12a3\u120d": 6344,
  "\u2581\u12a3\u1262\u120d\u12ab": 6345,
  "\u2581\u12da\u1325\u1240\u1219\u1209": 6346,
  "\u2581\u12dc\u12bd\u12a5\u120d": 6347,
  "\u2581Abel": 6348,
  "\u2581description": 6349,
  "\u2581disasters": 6350,
  "\u2581harsh": 6351,
  "\u2581manuscripts": 6352,
  "\u2581officer": 6353,
  "\u2581resolved": 6354,
  "\u2581suggests": 6355,
  "\u2581tent": 6356,
  "\u2581visible": 6357,
  "\u2581wholesome": 6358,
  "\u2581\u1213\u12ed\u1209": 6359,
  "\u2581\u121d\u12a5\u121b\u1295": 6360,
  "\u2581\u1228\u12b8\u1261": 6361,
  "\u2581\u1235\u122d\u1293\u12ed": 6362,
  "\u2581\u1235\u12d2\u1261": 6363,
  "\u2581\u1270\u12d3\u12d8\u1265\u1272": 6364,
  "\u2581\u12a3\u1295\u1263\u1246\u121d": 6365,
  "\u2581\u12a5\u122d\u130b\u1295": 6366,
  "\u2581\u12a8\u12a8\u121d": 6367,
  "\u2581\u12ad\u1295\u1308\u1265\u122e": 6368,
  "\u2581\u12bc\u130b\u1325\u1218": 6369,
  "\u2581\u12d8\u120c\u12cb\u12cd\u12eb\u1295": 6370,
  "\u2581\u12dd\u1308\u1265\u1229": 6371,
  "No": 6372,
  "\u12a9\u1295": 6373,
  "\u12d8\u122d\u12a2": 6374,
  "\u258129]": 6375,
  "\u2581Jephthah": 6376,
  "\u2581Up": 6377,
  "\u2581civil": 6378,
  "\u2581examination": 6379,
  "\u2581object": 6380,
  "\u2581obtained": 6381,
  "\u2581peaceable": 6382,
  "\u2581rescue": 6383,
  "\u2581reserved": 6384,
  "\u2581size": 6385,
  "\u2581weapons": 6386,
  "\u2581\u1218\u12a8\u122b\u1295": 6387,
  "\u2581\u12a3\u1250\u12f2\u121d": 6388,
  "\u2581\u12a3\u130b\u1320\u1218": 6389,
  "\u2581\u12a5\u1275\u122d\u12a5\u12ee": 6390,
  "\u2581\u12a5\u130d\u122a": 6391,
  "\u2581\u12ad\u1215\u130d\u12d8\u1293": 6392,
  "\u2581\u12bd\u1275\u1308\u120d\u133d": 6393,
  "\u2581\u12cb\u12d5\u120b": 6394,
  "\u2581\u12cd": 6395,
  "\u2581\u12da\u1260\u1203\u1209": 6396,
  "\u2581\u130d\u1265\u122d\u1273\u1275": 6397,
  "To": 6398,
  "\u1235\u122d": 6399,
  "\u12a3\u1209": 6400,
  "\u1308\u122d": 6401,
  "\u258117]": 6402,
  "\u2581European": 6403,
  "\u2581International": 6404,
  "\u2581Nations": 6405,
  "\u2581annual": 6406,
  "\u2581boat": 6407,
  "\u2581condemned": 6408,
  "\u2581mates": 6409,
  "\u2581miss": 6410,
  "\u2581photo": 6411,
  "\u2581privileged": 6412,
  "\u2581sincerely": 6413,
  "\u2581tired": 6414,
  "\u2581\u1215\u12cd\u1290\u1275": 6415,
  "\u2581\u121d\u1215\u1273\u1275": 6416,
  "\u2581\u121d\u12a5\u1273\u12cd": 6417,
  "\u2581\u1295\u12a3\u1308\u120d\u1308\u120d\u1271": 6418,
  "\u2581\u12a3\u1213\u1275\u1293\u1295": 6419,
  "\u2581\u12c8\u1348\u122b": 6420,
  "\u2581\u12dc\u12f5\u120d\u12e8": 6421,
  "\u2581\u1332\u120b\u1326\u1235": 6422,
  "ern": 6423,
  "\u1234": 6424,
  "\u12a5\u1270": 6425,
  "\u132b": 6426,
  "\u2581admits": 6427,
  "\u2581computer": 6428,
  "\u2581consist": 6429,
  "\u2581dry": 6430,
  "\u2581everywhere": 6431,
  "\u2581execution": 6432,
  "\u2581length": 6433,
  "\u2581objective": 6434,
  "\u2581obligation": 6435,
  "\u2581prize": 6436,
  "\u2581profound": 6437,
  "\u2581promotes": 6438,
  "\u2581video": 6439,
  "\u2581\u1215\u1219\u121d": 6440,
  "\u2581\u1218\u12f0\u1263\u1275": 6441,
  "\u2581\u121b\u12ab\u12ed\u1295": 6442,
  "\u2581\u121d\u133d\u120b\u12ed": 6443,
  "\u2581\u1265\u12da\u1265\u120d": 6444,
  "\u2581\u12a3\u1235\u1274\u122d": 6445,
  "\u2581\u12a3\u1250\u12f2\u121d\u1293": 6446,
  "\u2581\u12a8\u12ed\u1270\u1228\u1349": 6447,
  "\u2581\u12aa\u1228\u12ad\u1265": 6448,
  "\u2581\u12ab\u122d\u1273": 6449,
  "\u2581\u12ba\u1348\u120d\u1325": 6450,
  "\u2581\u12f5\u1295\u130b\u133d": 6451,
  "\u2581\u1308\u12ed\u122d\u1293": 6452,
  "\u2581\u1338\u120e\u1275\u1293": 6453,
  "\u1228\u1293": 6454,
  "\u1260\u12ed": 6455,
  "\u12a5\u1293": 6456,
  "\u1315\u1202": 6457,
  "\u25812004": 6458,
  "\u258121]": 6459,
  "\u2581Judges": 6460,
  "\u2581convey": 6461,
  "\u2581gets": 6462,
  "\u2581increasing": 6463,
  "\u2581motive": 6464,
  "\u2581ruled": 6465,
  "\u2581sitting": 6466,
  "\u2581weakness": 6467,
  "\u2581\u1230\u1265\u12a3\u12cd\u12eb\u1295": 6468,
  "\u2581\u1230\u1348\u122d": 6469,
  "\u2581\u1253\u120d\u1232": 6470,
  "\u2581\u12a5\u1290\u1255\u122d\u1266": 6471,
  "\u2581\u12ba\u134d\u1338\u121d": 6472,
  "\u2581\u12dd\u1230": 6473,
  "\u2581\u12dd\u12f0": 6474,
  "\u2581\u130d\u12f2": 6475,
  "v": 6476,
  "\u1255\u1295": 6477,
  "\u1263\u12ed": 6478,
  "\u1265\u1293": 6479,
  "\u25811,000": 6480,
  "\u2581Russell": 6481,
  "\u2581aged": 6482,
  "\u2581covering": 6483,
  "\u2581declaring": 6484,
  "\u2581fresh": 6485,
  "\u2581slavery": 6486,
  "\u2581suggested": 6487,
  "\u2581terrible": 6488,
  "\u2581zealously": 6489,
  "\u2581\u120b\u1272\u1295": 6490,
  "\u2581\u1213\u1208\u1348": 6491,
  "\u2581\u1215\u12eb\u12cb\u12ed": 6492,
  "\u2581\u1219\u1234\u1295": 6493,
  "\u2581\u1270\u1218\u120d\u1231": 6494,
  "\u2581\u1270\u12bd\u120a": 6495,
  "\u2581\u1295\u12cd\u1209\u12f5\u12ab": 6496,
  "\u2581\u12a3\u12ed\u130d\u1263\u12a5\u1295": 6497,
  "\u2581\u12a9\u1291": 6498,
  "\u2581\u12bd\u1295\u1213\u1275\u1275": 6499,
  "\u2581\u12bd\u12a2\u120e\u121d": 6500,
  "\u2581\u12d8\u12ab\u122d\u12eb\u1235": 6501,
  "\u2581\u12dd\u1218\u120d\u12a0": 6502,
  "\u2581\u12eb\u12a5\u1246\u1265\u1295": 6503,
  "\u2581\u1310": 6504,
  "\u2581\u1338\u120a": 6505,
  "Your": 6506,
  "we": 6507,
  "\u1235\u12aa": 6508,
  "\u1241": 6509,
  "\u12be": 6510,
  "\u12cb\u12ed": 6511,
  "\u1325\u1218\u1255": 6512,
  "\u134d\u1275\u1295": 6513,
  "\u2581Caesar": 6514,
  "\u2581accompanie": 6515,
  "\u2581debt": 6516,
  "\u2581detail": 6517,
  "\u2581faces": 6518,
  "\u2581female": 6519,
  "\u2581interesting": 6520,
  "\u2581losing": 6521,
  "\u2581minded": 6522,
  "\u2581offerings": 6523,
  "\u2581wear": 6524,
  "\u2581\u124d\u1325\u12d3": 6525,
  "\u2581\u1265\u12a5": 6526,
  "\u2581\u1270\u12f3\u120d\u12e9": 6527,
  "\u2581\u1295\u12dd\u1290\u1260\u1229": 6528,
  "\u2581\u12a3\u1233": 6529,
  "\u2581\u12a5\u1290\u134d\u1245\u122e": 6530,
  "\u2581\u12ad\u1228\u12bd\u1261": 6531,
  "\u2581\u12da\u1228\u12bd\u1265\u12ce": 6532,
  "\u2581\u12dd\u122d\u12a5\u12ee": 6533,
  "\u2581\u12dd\u1290\u1260\u1228\u1293": 6534,
  "\u2581\u12dd\u12a3\u1270\u12c8": 6535,
  "\u2581\u12dd\u1320\u1250\u1236": 6536,
  "2,000": 6537,
  "\u1205\u120d": 6538,
  "\u1213\u12f5\u123d": 6539,
  "\u1216\u121d": 6540,
  "\u12d4": 6541,
  "\u2581Gen": 6542,
  "\u2581V": 6543,
  "\u2581Were": 6544,
  "\u2581Year": 6545,
  "\u2581capacity": 6546,
  "\u2581drug": 6547,
  "\u2581equal": 6548,
  "\u2581prisoners": 6549,
  "\u2581repeated": 6550,
  "\u2581represents": 6551,
  "\u2581summer": 6552,
  "\u2581universal": 6553,
  "\u2581\u1203\u12cb\u1205\u12cd": 6554,
  "\u2581\u1218\u12a3\u12f2": 6555,
  "\u2581\u121d\u12f5\u120b\u12ed": 6556,
  "\u2581\u122c\u1233": 6557,
  "\u2581\u1245\u1295\u12a2": 6558,
  "\u2581\u1263\u1205\u122d\u12eb\u1271": 6559,
  "\u2581\u12a3\u12bd\u1262\u122e\u121d": 6560,
  "\u2581\u12bd\u1295\u1308\u1265\u122e": 6561,
  "\u2581\u12ed\u1235\u121d\u12d3\u1292": 6562,
  "\u2581\u12ed\u1348\u120d\u1326": 6563,
  "\u1260\u1272": 6564,
  "\u1260\u1293": 6565,
  "\u12cd\u1235": 6566,
  "\u258173": 6567,
  "\u2581Zephaniah": 6568,
  "\u2581acquainted": 6569,
  "\u2581adopted": 6570,
  "\u2581amazing": 6571,
  "\u2581donations": 6572,
  "\u2581grant": 6573,
  "\u2581hot": 6574,
  "\u2581marital": 6575,
  "\u2581maturity": 6576,
  "\u2581method": 6577,
  "\u2581pursuit": 6578,
  "\u2581survived": 6579,
  "\u2581television": 6580,
  "\u2581weight": 6581,
  "\u2581wrongdoing": 6582,
  "\u2581\u1215\u1270\u1275": 6583,
  "\u2581\u121d\u1233\u12bb\u1275": 6584,
  "\u2581\u121d\u125d\u122b\u133d": 6585,
  "\u2581\u1240\u120d\u1322\u1349": 6586,
  "\u2581\u1265\u1235\u1208\u1275": 6587,
  "\u2581\u1295\u1263\u12d5\u1209": 6588,
  "\u2581\u1295\u12a3\u1218\u1295\u1272": 6589,
  "\u2581\u12a3\u12c8\u1305": 6590,
  "\u2581\u12a5\u1270\u1348\u1325\u1228": 6591,
  "\u2581\u12a8\u12f1": 6592,
  "\u2581\u12bd\u1295\u1215\u1209": 6593,
  "\u2581\u12cd\u12d5\u120d": 6594,
  "\u2581\u12da\u12a8\u12a3\u1208": 6595,
  "\u2581\u12dd\u12f0\u134d\u12a1": 6596,
  "\u2581\u12e8\u1228\u130b\u130d\u1338\u120d\u1293": 6597,
  "\u2581\u12ee": 6598,
  "\u2581\u133d\u12f5\u1243\u12ca": 6599,
  "\u1215\u120d\u134e": 6600,
  "\u12ad\u12cb": 6601,
  "\u25812014": 6602,
  "\u258134.": 6603,
  "\u2581Maria": 6604,
  "\u2581Stephen": 6605,
  "\u2581View": 6606,
  "\u2581burn": 6607,
  "\u2581doubts": 6608,
  "\u2581emotionally": 6609,
  "\u2581encounter": 6610,
  "\u2581enduring": 6611,
  "\u2581instruct": 6612,
  "\u2581regret": 6613,
  "\u2581shine": 6614,
  "\u2581spite": 6615,
  "\u2581temper": 6616,
  "\u2581\u1265\u1218\u120d\u12ad\u12d5": 6617,
  "\u2581\u1265\u121d\u1295\u1263\u122e\u121d": 6618,
  "\u2581\u1265\u121d\u1325\u1243\u121d": 6619,
  "\u2581\u1270\u1320\u1252\u1236\u121d": 6620,
  "\u2581\u1270\u1348": 6621,
  "\u2581\u1295\u12aa\u12c0\u1291": 6622,
  "\u2581\u12a3\u12ed\u12f0\u120d\u1295": 6623,
  "\u2581\u12a5\u1270\u1320\u1255\u1230\u1275": 6624,
[...]
